<unk>	0
<s>	0
</s>	0
▁*	-0
20	-1
19	-2
201	-3
200	-4
),	-5
10	-6
一个	-7
er	-8
18	-9
an	-10
中国	-11
00	-12
▁19	-13
12	-14
on	-15
in	-16
▁(	-17
ar	-18
11	-19
美国	-20
公司	-21
大学	-22
)。	-23
位于	-24
en	-25
。19	-26
15	-27
▁201	-28
成为	-29
日本	-30
第一	-31
香港	-32
or	-33
▁《	-34
al	-35
国家	-36
开始	-37
使用	-38
可以	-39
地区	-40
16	-41
的一	-42
199	-43
世界	-44
17	-45
▁S	-46
研究	-47
历史	-48
▁-	-49
电影	-50
主要	-51
包括	-52
at	-53
进行	-54
es	-55
以及	-56
电视	-57
第二	-58
▁200	-59
21	-60
▁C	-61
获得	-62
其他	-63
部分	-64
他们	-65
没有	-66
14	-67
是一	-68
is	-69
ic	-70
13	-71
)、	-72
学院	-73
▁在	-74
其中	-75
22	-76
》(	-77
车站	-78
由于	-79
30	-80
el	-81
人民	-82
▁M	-83
国际	-84
他的	-85
政府	-86
认为	-87
之后	-88
因为	-89
198	-90
中心	-91
自己	-92
建筑	-93
▁饰	-94
中的	-95
游戏	-96
因此	-97
25	-98
作为	-99
工作	-100
it	-101
发现	-102
法国	-103
..	-104
▁A	-105
之一	-106
设计	-107
铁路	-108
学校	-109
可能	-110
比赛	-111
音乐	-112
同时	-113
▁B	-114
作品	-115
当时	-116
担任	-117
il	-118
am	-119
冠军	-120
us	-121
运动	-122
委员	-123
英国	-124
时间	-125
代表	-126
23	-127
称为	-128
▁P	-129
ol	-130
足球	-131
台湾	-132
通过	-133
世纪	-134
▁20	-135
as	-136
成立	-137
发展	-138
ch	-139
属于	-140
50	-141
系统	-142
联赛	-143
最后	-144
▁T	-145
不同	-146
re	-147
制作	-148
政治	-149
人口	-150
文化	-151
后来	-152
”。	-153
28	-154
年的	-155
出现	-156
工程	-157
24	-158
公里	-159
名为	-160
第三	-161
et	-162
197	-163
管理	-164
》,	-165
这个	-166
年代	-167
期间	-168
ion	-169
球队	-170
ro	-171
▁生	-172
he	-173
利亚	-174
」,	-175
正式	-176
▁L	-177
最终	-178
上的	-179
之间	-180
le	-181
这些	-182
影响	-183
也是	-184
社会	-185
参加	-186
▁H	-187
▁历史	-188
发生	-189
196	-190
所有	-191
》、	-192
▁R	-193
进入	-194
节目	-195
的一个	-196
ur	-197
根据	-198
。201	-199
人的	-200
城市	-201
”,	-202
经济	-203
计划	-204
大的	-205
北京	-206
26	-207
▁G	-208
▁第	-209
委员会	-210
罗斯	-211
人物	-212
组织	-213
上海	-214
德国	-215
时期	-216
尼亚	-217
教育	-218
▁D	-219
最佳	-220
共和	-221
27	-222
两个	-223
):	-224
技术	-225
成员	-226
194	-227
▁199	-228
」。	-229
学家	-230
行政	-231
生活	-232
▁F	-233
出版	-234
有一	-235
系列	-236
发行	-237
提供	-238
面积	-239
om	-240
》、《	-241
un	-242
演员	-243
中央	-244
列车	-245
二十	-246
艺术	-247
——	-248
已经	-249
活动	-250
战争	-251
斯特	-252
表示	-253
许多	-254
了一	-255
欧洲	-256
集团	-257
ac	-258
195	-259
主义	-260
但是	-261
重要	-262
共和国	-263
29	-264
主教	-265
为了	-266
。200	-267
完成	-268
ing	-269
故事	-270
保护	-271
000	-272
关系	-273
到了	-274
出生	-275
服务	-276
联盟	-277
▁生平	-278
有限	-279
of	-280
40	-281
十二	-282
目前	-283
成功	-284
前往	-285
de	-286
角色	-287
决定	-288
分布	-289
的人	-290
他在	-291
▁大	-292
拥有	-293
组成	-294
os	-295
结构	-296
分别	-297
全国	-298
举行	-299
交通	-300
▁I	-301
联合	-302
市镇	-303
虽然	-304
通常	-305
号线	-306
的地	-307
and	-308
航空	-309
加入	-310
参与	-311
问题	-312
父亲	-313
60	-314
动物	-315
需要	-316
是在	-317
印度	-318
北部	-319
俄罗斯	-320
▁E	-321
建立	-322
存在	-323
宣布	-324
最高	-325
的大	-326
中华	-327
当地	-328
将军	-329
时代	-330
并且	-331
来自	-332
科学	-333
ra	-334
同年	-335
▁本	-336
▁W	-337
用于	-338
平方	-339
独立	-340
开发	-341
31	-342
项目	-343
首次	-344
一般	-345
▁N	-346
方面	-347
.5	-348
生产	-349
ri	-350
具有	-351
学生	-352
公园	-353
80	-354
格兰	-355
▁of	-356
形成	-357
负责	-358
罗马	-359
歌曲	-360
海军	-361
小说	-362
一些	-363
单位	-364
导致	-365
相关	-366
球员	-367
决赛	-368
产生	-369
南部	-370
采用	-371
西亚	-372
职业	-373
专辑	-374
有限公司	-375
事件	-376
37	-377
▁K	-378
特别	-379
方式	-380
合作	-381
年至	-382
ter	-383
情况	-384
ed	-385
然而	-386
生涯	-387
结束	-388
机车	-389
并在	-390
帝国	-391
设有	-392
公路	-393
生物	-394
100	-395
例如	-396
ad	-397
这种	-398
毕业	-399
大利	-400
所以	-401
》。	-402
的是	-403
ia	-404
个人	-405
取得	-406
ul	-407
机场	-408
饰演	-409
自己的	-410
35	-411
附近	-412
中学	-413
经过	-414
受到	-415
现在	-416
支持	-417
建设	-418
不过	-419
三年	-420
2019	-421
控制	-422
是一个	-423
:“	-424
th	-425
体育	-426
克斯	-427
导演	-428
2010	-429
会议	-430
机构	-431
赛季	-432
就是	-433
阿尔	-434
国王	-435
这一	-436
人员	-437
合并	-438
无法	-439
大陆	-440
著名	-441
70	-442
ay	-443
银行	-444
一直	-445
(15	-446
家族	-447
ent	-448
一起	-449
只有	-450
」(	-451
植物	-452
st	-453
细胞	-454
非常	-455
工业	-456
位置	-457
▁198	-458
赛事	-459
年度	-460
90	-461
得到	-462
造成	-463
区域	-464
继续	-465
环境	-466
过程	-467
来的	-468
传统	-469
um	-470
ir	-471
ation	-472
ig	-473
▁t	-474
苏联	-475
博物	-476
2020	-477
演出	-478
45	-479
女子	-480
结果	-481
增加	-482
十一	-483
另外	-484
是由	-485
自由	-486
之前	-487
。”	-488
主席	-489
年间	-490
家庭	-491
以下	-492
道路	-493
医院	-494
于是	-495
新闻	-496
要求	-497
超过	-498
对于	-499
教授	-500
1,	-501
西班	-502
约翰	-503
另一	-504
id	-505
纪念	-506
▁18	-507
西班牙	-508
此外	-509
2008	-510
46	-511
如果	-512
48	-513
im	-514
▁J	-515
2012	-516
2011	-517
47	-518
东京	-519
儿子	-520
2009	-521
出的	-522
ot	-523
名称	-524
1.	-525
部队	-526
2016	-527
高速	-528
重新	-529
分为	-530
四年	-531
指挥	-532
接受	-533
2013	-534
反应	-535
博物馆	-536
进士	-537
总统	-538
38	-539
去世	-540
范围	-541
乐部	-542
能力	-543
现代	-544
改为	-545
(18	-546
ag	-547
36	-548
东北	-549
地方	-550
2015	-551
任何	-552
俱乐部	-553
第四	-554
2006	-555
电视剧	-556
2014	-557
战斗	-558
2007	-559
创作	-560
纪录	-561
直到	-562
企业	-563
内的	-564
表现	-565
东南	-566
成绩	-567
除了	-568
军队	-569
内容	-570
协会	-571
2017	-572
后的	-573
选择	-574
军事	-575
电视台	-576
击败	-577
小时	-578
利用	-579
它们	-580
:「	-581
自然	-582
39	-583
58	-584
主题	-585
人民共和国	-586
版本	-587
主持	-588
语言	-589
尔斯	-590
运动员	-591
性的	-592
亚洲	-593
选举	-594
拍摄	-595
母亲	-596
作用	-597
文学	-598
2018	-599
2000	-600
▁O	-601
再次	-602
制造	-603
她的	-604
线路	-605
iv	-606
人类	-607
电子	-608
都是	-609
日在	-610
意大利	-611
标准	-612
....	-613
:00	-614
有关	-615
33	-616
方法	-617
ut	-618
2021	-619
并不	-620
也有	-621
▁:	-622
是一种	-623
联邦	-624
共同	-625
广东	-626
▁V	-627
随后	-628
op	-629
的时	-630
主角	-631
年在	-632
浙江	-633
物种	-634
三十	-635
配音	-636
新的	-637
西南	-638
完全	-639
里斯	-640
,《	-641
攻击	-642
动画	-643
太平	-644
设立	-645
em	-646
博士	-647
中华人民共和国	-648
拉斯	-649
元年	-650
ow	-651
下的	-652
类似	-653
市场	-654
特征	-655
34	-656
数量	-657
直接	-658
曾经	-659
最初	-660
山东	-661
加拿	-662
美元	-663
实验	-664
2005	-665
提出	-666
还有	-667
任务	-668
离开	-669
75	-670
安全	-671
广播	-672
32	-673
区的	-674
。199	-675
大量	-676
学习	-677
包含	-678
玩家	-679
ec	-680
一次	-681
死亡	-682
纽约	-683
▁d	-684
形式	-685
锦标	-686
早期	-687
河南	-688
领导	-689
的女	-690
命名	-691
这是	-692
(16	-693
三个	-694
举办	-695
韩国	-696
设置	-697
▁李	-698
西北	-699
甚至	-700
▁该	-701
模式	-702
并于	-703
一种	-704
专业	-705
五年	-706
必须	-707
行动	-708
共有	-709
调查	-710
不能	-711
希腊	-712
地下	-713
西部	-714
平均	-715
距离	-716
毫米	-717
播出	-718
▁	-719
,	-720
的	-721
。	-722
1	-723
0	-724
年	-725
2	-726
、	-727
)	-728
(	-729
*	-730
9	-731
在	-732
一	-733
为	-734
中	-735
e	-736
是	-737
国	-738
a	-739
大	-740
人	-741
于	-742
有	-743
i	-744
月	-745
5	-746
3	-747
8	-748
和	-749
n	-750
o	-751
日	-752
4	-753
r	-754
6	-755
:	-756
7	-757
后	-758
学	-759
以	-760
了	-761
时	-762
t	-763
成	-764
地	-765
斯	-766
上	-767
出	-768
会	-769
他	-770
s	-771
l	-772
生	-773
个	-774
部	-775
》	-776
《	-777
·	-778
不	-779
与	-780
作	-781
之	-782
第	-783
-	-784
名	-785
公	-786
尔	-787
行	-788
主	-789
家	-790
区	-791
西	-792
其	-793
分	-794
发	-795
子	-796
本	-797
军	-798
用	-799
到	-800
被	-801
并	-802
南	-803
而	-804
长	-805
下	-806
特	-807
u	-808
及	-809
由	-810
市	-811
位	-812
三	-813
.	-814
东	-815
来	-816
赛	-817
德	-818
最	-819
克	-820
同	-821
法	-822
北	-823
里	-824
开	-825
方	-826
可	-827
道	-828
多	-829
高	-830
新	-831
电	-832
物	-833
亚	-834
前	-835
这	-836
自	-837
二	-838
h	-839
员	-840
球	-841
c	-842
加	-843
文	-844
对	-845
动	-846
任	-847
路	-848
d	-849
利	-850
车	-851
世	-852
山	-853
m	-854
建	-855
得	-856
美	-857
至	-858
十	-859
海	-860
所	-861
S	-862
小	-863
现	-864
代	-865
因	-866
事	-867
马	-868
机	-869
战	-870
间	-871
拉	-872
入	-873
进	-874
内	-875
队	-876
也	-877
经	-878
过	-879
」	-880
「	-881
C	-882
教	-883
A	-884
天	-885
场	-886
将	-887
“	-888
此	-889
”	-890
要	-891
合	-892
等	-893
政	-894
台	-895
工	-896
线	-897
平	-898
体	-899
州	-900
期	-901
王	-902
能	-903
理	-904
制	-905
站	-906
业	-907
通	-908
次	-909
设	-910
立	-911
演	-912
当	-913
外	-914
科	-915
民	-916
度	-917
化	-918
罗	-919
但	-920
布	-921
种	-922
面	-923
使	-924
安	-925
号	-926
联	-927
者	-928
定	-929
全	-930
称	-931
;	-932
原	-933
比	-934
城	-935
院	-936
表	-937
重	-938
该	-939
性	-940
g	-941
金	-942
两	-943
司	-944
都	-945
士	-946
P	-947
县	-948
力	-949
M	-950
T	-951
四	-952
明	-953
女	-954
相	-955
省	-956
水	-957
格	-958
式	-959
影	-960
史	-961
B	-962
基	-963
系	-964
y	-965
兰	-966
正	-967
尼	-968
米	-969
约	-970
阿	-971
目	-972
元	-973
组	-974
英	-975
达	-976
乐	-977
数	-978
色	-979
运	-980
p	-981
列	-982
治	-983
关	-984
起	-985
首	-986
选	-987
或	-988
总	-989
改	-990
林	-991
们	-992
计	-993
手	-994
共	-995
口	-996
历	-997
属	-998
从	-999
心	-1000
I	-1001
港	-1002
常	-1003
D	-1004
视	-1005
向	-1006
村	-1007
河	-1008
无	-1009
产	-1010
音	-1011
剧	-1012
E	-1013
书	-1014
巴	-1015
华	-1016
如	-1017
交	-1018
接	-1019
统	-1020
结	-1021
提	-1022
集	-1023
级	-1024
界	-1025
品	-1026
门	-1027
广	-1028
型	-1029
太	-1030
然	-1031
R	-1032
语	-1033
获	-1034
曲	-1035
保	-1036
类	-1037
卡	-1038
星	-1039
夫	-1040
量	-1041
N	-1042
参	-1043
五	-1044
曾	-1045
说	-1046
形	-1047
维	-1048
铁	-1049
实	-1050
校	-1051
直	-1052
务	-1053
k	-1054
龙	-1055
包	-1056
府	-1057
始	-1058
意	-1059
香	-1060
团	-1061
就	-1062
传	-1063
神	-1064
江	-1065
流	-1066
L	-1067
师	-1068
万	-1069
身	-1070
古	-1071
岛	-1072
受	-1073
单	-1074
程	-1075
导	-1076
b	-1077
石	-1078
义	-1079
回	-1080
G	-1081
纪	-1082
空	-1083
奥	-1084
点	-1085
则	-1086
游	-1087
管	-1088
已	-1089
术	-1090
饰	-1091
情	-1092
奖	-1093
H	-1094
处	-1095
领	-1096
著	-1097
议	-1098
节	-1099
社	-1100
朝	-1101
官	-1102
指	-1103
造	-1104
田	-1105
京	-1106
光	-1107
应	-1108
角	-1109
白	-1110
击	-1111
片	-1112
张	-1113
镇	-1114
展	-1115
f	-1116
纳	-1117
—	-1118
少	-1119
她	-1120
更	-1121
头	-1122
别	-1123
F	-1124
字	-1125
些	-1126
v	-1127
苏	-1128
武	-1129
洲	-1130
研	-1131
O	-1132
编	-1133
季	-1134
伊	-1135
认	-1136
还	-1137
变	-1138
信	-1139
李	-1140
活	-1141
职	-1142
波	-1143
转	-1144
只	-1145
命	-1146
版	-1147
近	-1148
资	-1149
局	-1150
持	-1151
兵	-1152
带	-1153
歌	-1154
六	-1155
取	-1156
打	-1157
周	-1158
普	-1159
足	-1160
图	-1161
风	-1162
爱	-1163
连	-1164
各	-1165
际	-1166
收	-1167
/	-1168
知	-1169
它	-1170
举	-1171
去	-1172
专	-1173
记	-1174
又	-1175
没	-1176
族	-1177
初	-1178
圣	-1179
清	-1180
段	-1181
K	-1182
据	-1183
支	-1184
亲	-1185
委	-1186
标	-1187
帝	-1188
先	-1189
究	-1190
福	-1191
V	-1192
气	-1193
决	-1194
非	-1195
花	-1196
阳	-1197
条	-1198
括	-1199
宗	-1200
反	-1201
座	-1202
解	-1203
放	-1204
园	-1205
创	-1206
商	-1207
往	-1208
再	-1209
今	-1210
死	-1211
八	-1212
离	-1213
根	-1214
儿	-1215
构	-1216
未	-1217
果	-1218
复	-1219
父	-1220
完	-1221
戏	-1222
馆	-1223
川	-1224
播	-1225
画	-1226
黄	-1227
吉	-1228
塔	-1229
母	-1230
卫	-1231
洛	-1232
冠	-1233
装	-1234
威	-1235
器	-1236
论	-1237
划	-1238
即	-1239
欧	-1240
报	-1241
录	-1242
置	-1243
博	-1244
育	-1245
观	-1246
终	-1247
营	-1248
土	-1249
湾	-1250
好	-1251
雷	-1252
示	-1253
超	-1254
质	-1255
见	-1256
速	-1257
萨	-1258
强	-1259
项	-1260
伯	-1261
故	-1262
汉	-1263
升	-1264
每	-1265
居	-1266
随	-1267
边	-1268
皇	-1269
青	-1270
哈	-1271
瓦	-1272
希	-1273
修	-1274
件	-1275
给	-1276
续	-1277
令	-1278
调	-1279
火	-1280
投	-1281
病	-1282
功	-1283
较	-1284
七	-1285
艺	-1286
源	-1287
木	-1288
陆	-1289
伦	-1290
w	-1291
九	-1292
存	-1293
助	-1294
男	-1295
攻	-1296
亦	-1297
氏	-1298
办	-1299
具	-1300
权	-1301
医	-1302
客	-1303
岁	-1304
筑	-1305
服	-1306
且	-1307
引	-1308
护	-1309
W	-1310
党	-1311
飞	-1312
争	-1313
例	-1314
许	-1315
很	-1316
J	-1317
胜	-1318
己	-1319
配	-1320
题	-1321
除	-1322
室	-1323
塞	-1324
航	-1325
鲁	-1326
勒	-1327
担	-1328
志	-1329
堂	-1330
派	-1331
份	-1332
真	-1333
U	-1334
红	-1335
甲	-1336
森	-1337
诺	-1338
协	-1339
早	-1340
兴	-1341
技	-1342
湖	-1343
老	-1344
食	-1345
杀	-1346
桥	-1347
庄	-1348
环	-1349
沙	-1350
黑	-1351
陈	-1352
奇	-1353
我	-1354
评	-1355
街	-1356
备	-1357
班	-1358
规	-1359
率	-1360
郡	-1361
那	-1362
致	-1363
莱	-1364
百	-1365
双	-1366
状	-1367
层	-1368
查	-1369
%	-1370
托	-1371
另	-1372
落	-1373
域	-1374
境	-1375
积	-1376
乡	-1377
刘	-1378
试	-1379
样	-1380
围	-1381
宣	-1382
言	-1383
容	-1384
继	-1385
易	-1386
印	-1387
盟	-1388
推	-1389
失	-1390
哥	-1391
恩	-1392
准	-1393
景	-1394
限	-1395
济	-1396
射	-1397
增	-1398
深	-1399
曼	-1400
野	-1401
姆	-1402
密	-1403
供	-1404
感	-1405
半	-1406
登	-1407
贝	-1408
模	-1409
顿	-1410
宫	-1411
排	-1412
施	-1413
声	-1414
群	-1415
副	-1416
问	-1417
云	-1418
败	-1419
整	-1420
网	-1421
均	-1422
考	-1423
众	-1424
佳	-1425
独	-1426
千	-1427
祖	-1428
求	-1429
友	-1430
埃	-1431
像	-1432
迪	-1433
越	-1434
响	-1435
楼	-1436
康	-1437
泰	-1438
住	-1439
俄	-1440
宁	-1441
征	-1442
侧	-1443
防	-1444
鱼	-1445
守	-1446
典	-1447
房	-1448
夏	-1449
想	-1450
告	-1451
库	-1452
步	-1453
证	-1454
热	-1455
让	-1456
丽	-1457
索	-1458
何	-1459
届	-1460
察	-1461
授	-1462
象	-1463
留	-1464
采	-1465
才	-1466
洋	-1467
料	-1468
写	-1469
止	-1470
舰	-1471
效	-1472
费	-1473
牙	-1474
唱	-1475
瑞	-1476
范	-1477
席	-1478
银	-1479
温	-1480
需	-1481
素	-1482
看	-1483
织	-1484
占	-1485
着	-1486
章	-1487
郎	-1488
简	-1489
便	-1490
左	-1491
监	-1492
案	-1493
细	-1494
嘉	-1495
弟	-1496
极	-1497
町	-1498
丁	-1499
佛	-1500
宝	-1501
降	-1502
封	-1503
堡	-1504
叶	-1505
附	-1506
户	-1507
话	-1508
松	-1509
承	-1510
永	-1511
蒙	-1512
仍	-1513
牌	-1514
丹	-1515
督	-1516
乌	-1517
唐	-1518
干	-1519
厅	-1520
词	-1521
远	-1522
载	-1523
富	-1524
几	-1525
测	-1526
低	-1527
右	-1528
仅	-1529
述	-1530
精	-1531
礼	-1532
价	-1533
余	-1534
负	-1535
船	-1536
杯	-1537
态	-1538
移	-1539
店	-1540
把	-1541
念	-1542
隆	-1543
寺	-1544
注	-1545
拿	-1546
律	-1547
退	-1548
酒	-1549
藏	-1550
停	-1551
z	-1552
显	-1553
旅	-1554
确	-1555
满	-1556
底	-1557
莫	-1558
春	-1559
农	-1560
庆	-1561
久	-1562
思	-1563
弗	-1564
杰	-1565
练	-1566
控	-1567
票	-1568
弹	-1569
坦	-1570
斗	-1571
走	-1572
望	-1573
雄	-1574
蒂	-1575
轮	-1576
责	-1577
预	-1578
梅	-1579
辑	-1580
优	-1581
皮	-1582
秀	-1583
旧	-1584
执	-1585
消	-1586
遗	-1587
候	-1588
快	-1589
短	-1590
却	-1591
尾	-1592
验	-1593
尚	-1594
草	-1595
延	-1596
艾	-1597
破	-1598
灵	-1599
药	-1600
荣	-1601
批	-1602
澳	-1603
麦	-1604
孙	-1605
谷	-1606
役	-1607
似	-1608
血	-1609
树	-1610
玛	-1611
照	-1612
油	-1613
央	-1614
含	-1615
临	-1616
杨	-1617
晋	-1618
背	-1619
朗	-1620
警	-1621
顺	-1622
况	-1623
端	-1624
归	-1625
阵	-1626
做	-1627
请	-1628
雅	-1629
邦	-1630
断	-1631
伤	-1632
突	-1633
耶	-1634
亡	-1635
依	-1636
息	-1637
喜	-1638
摩	-1639
津	-1640
植	-1641
股	-1642
菲	-1643
异	-1644
摄	-1645
庭	-1646
难	-1647
宋	-1648
卢	-1649
闻	-1650
虽	-1651
拥	-1652
x	-1653
算	-1654
韩	-1655
厂	-1656
末	-1657
吴	-1658
切	-1659
势	-1660
・	-1661
ー	-1662
读	-1663
般	-1664
架	-1665
压	-1666
良	-1667
顶	-1668
介	-1669
辖	-1670
毛	-1671
习	-1672
换	-1673
沿	-1674
の	-1675
赫	-1676
骨	-1677
革	-1678
钟	-1679
丰	-1680
婚	-1681
诗	-1682
臣	-1683
若	-1684
养	-1685
岸	-1686
轻	-1687
鸟	-1688
贵	-1689
岩	-1690
售	-1691
识	-1692
必	-1693
朱	-1694
追	-1695
板	-1696
梁	-1697
毕	-1698
毒	-1699
晚	-1700
佐	-1701
绝	-1702
值	-1703
译	-1704
送	-1705
帕	-1706
纽	-1707
爵	-1708
映	-1709
启	-1710
拍	-1711
齐	-1712
盖	-1713
屋	-1714
抗	-1715
隶	-1716
兹	-1717
御	-1718
核	-1719
井	-1720
骑	-1721
兼	-1722
束	-1723
舞	-1724
善	-1725
娜	-1726
乘	-1727
旗	-1728
酸	-1729
胡	-1730
泽	-1731
卷	-1732
玉	-1733
凯	-1734
冲	-1735
魔	-1736
仁	-1737
Y	-1738
码	-1739
君	-1740
迁	-1741
杂	-1742
微	-1743
略	-1744
玩	-1745
训	-1746
逐	-1747
散	-1748
–	-1749
翰	-1750
黎	-1751
严	-1752
轨	-1753
昌	-1754
宾	-1755
须	-1756
判	-1757
妻	-1758
夺	-1759
牛	-1760
"	-1761
智	-1762
尽	-1763
亿	-1764
锦	-1765
刺	-1766
X	-1767
沃	-1768
兄	-1769
夜	-1770
杜	-1771
乔	-1772
涯	-1773
ン	-1774
补	-1775
宇	-1776
什	-1777
签	-1778
籍	-1779
劳	-1780
胞	-1781
聚	-1782
材	-1783
敌	-1784
救	-1785
输	-1786
阶	-1787
枪	-1788
圆	-1789
仪	-1790
险	-1791
莉	-1792
溪	-1793
距	-1794
欢	-1795
企	-1796
检	-1797
巨	-1798
频	-1799
遭	-1800
魏	-1801
拜	-1802
郑	-1803
策	-1804
免	-1805
盛	-1806
眼	-1807
差	-1808
丝	-1809
童	-1810
销	-1811
藤	-1812
按	-1813
疗	-1814
购	-1815
绩	-1816
挥	-1817
驻	-1818
财	-1819
廷	-1820
谢	-1821
赵	-1822
序	-1823
雪	-1824
予	-1825
探	-1826
烈	-1827
途	-1828
蓝	-1829
!	-1830
诸	-1831
巡	-1832
货	-1833
爆	-1834
荷	-1835
假	-1836
竹	-1837
+	-1838
宽	-1839
址	-1840
混	-1841
害	-1842
忠	-1843
减	-1844
署	-1845
概	-1846
讲	-1847
冈	-1848
刻	-1849
你	-1850
秘	-1851
遇	-1852
休	-1853
峰	-1854
释	-1855
款	-1856
奏	-1857
殿	-1858
废	-1859
邻	-1860
漫	-1861
霍	-1862
跟	-1863
а	-1864
描	-1865
泉	-1866
侯	-1867
帮	-1868
秋	-1869
互	-1870
韦	-1871
甚	-1872
健	-1873
棒	-1874
敦	-1875
觉	-1876
绿	-1877
献	-1878
坡	-1879
症	-1880
羽	-1881
穆	-1882
吸	-1883
替	-1884
露	-1885
尺	-1886
竞	-1887
找	-1888
横	-1889
琴	-1890
适	-1891
佩	-1892
孩	-1893
庙	-1894
俱	-1895
誉	-1896
奈	-1897
妹	-1898
充	-1899
辆	-1900
逃	-1901
染	-1902
昭	-1903
幕	-1904
篇	-1905
径	-1906
梦	-1907
审	-1908
穿	-1909
盘	-1910
徐	-1911
脚	-1912
渐	-1913
炮	-1914
透	-1915
剑	-1916
陵	-1917
固	-1918
耳	-1919
棋	-1920
借	-1921
额	-1922
芬	-1923
徒	-1924
怀	-1925
冰	-1926
罪	-1927
鲜	-1928
扩	-1929
柏	-1930
惠	-1931
呈	-1932
奉	-1933
洪	-1934
翼	-1935
茨	-1936
钱	-1937
乱	-1938
灭	-1939
够	-1940
墓	-1941
援	-1942
刚	-1943
'	-1944
戴	-1945
激	-1946
唯	-1947
辛	-1948
靠	-1949
私	-1950
媒	-1951
某	-1952
毫	-1953
亮	-1954
择	-1955
暴	-1956
缘	-1957
?	-1958
缺	-1959
衣	-1960
袭	-1961
返	-1962
』	-1963
『	-1964
镜	-1965
侍	-1966
池	-1967
块	-1968
浙	-1969
乙	-1970
益	-1971
赞	-1972
孔	-1973
皆	-1974
雨	-1975
仙	-1976
尤	-1977
脱	-1978
舍	-1979
о	-1980
秦	-1981
虎	-1982
肉	-1983
恶	-1984
乎	-1985
榜	-1986
腊	-1987
听	-1988
矿	-1989
滨	-1990
曹	-1991
震	-1992
姓	-1993
赏	-1994
讨	-1995
蛋	-1996
洞	-1997
顾	-1998
禁	-1999
菌	-2000
谋	-2001
甘	-2002
融	-2003
捕	-2004
桑	-2005
墨	-2006
肯	-2007
操	-2008
寿	-2009
钢	-2010
翻	-2011
毁	-2012
绍	-2013
浦	-2014
急	-2015
待	-2016
戈	-2017
刊	-2018
迹	-2019
j	-2020
综	-2021
访	-2022
廉	-2023
冷	-2024
颁	-2025
币	-2026
～	-2027
Z	-2028
虫	-2029
课	-2030
幸	-2031
招	-2032
逝	-2033
齿	-2034
彩	-2035
暗	-2036
麻	-2037
珠	-2038
汇	-2039
味	-2040
旋	-2041
汽	-2042
培	-2043
莎	-2044
申	-2045
凤	-2046
努	-2047
阴	-2048
坚	-2049
侵	-2050
寻	-2051
迎	-2052
殖	-2053
液	-2054
辅	-2055
剂	-2056
络	-2057
默	-2058
恐	-2059
渡	-2060
ス	-2061
瑟	-2062
隔	-2063
患	-2064
刑	-2065
拔	-2066
抵	-2067
扬	-2068
匹	-2069
鳍	-2070
撤	-2071
恒	-2072
迷	-2073
赢	-2074
危	-2075
冬	-2076
и	-2077
幼	-2078
董	-2079
静	-2080
午	-2081
楚	-2082
损	-2083
呼	-2084
宜	-2085
氧	-2086
犯	-2087
葡	-2088
么	-2089
潜	-2090
彼	-2091
贡	-2092
崇	-2093
脉	-2094
炸	-2095
买	-2096
符	-2097
扎	-2098
愿	-2099
姐	-2100
滑	-2101
亨	-2102
伍	-2103
绘	-2104
辽	-2105
哲	-2106
い	-2107
册	-2108
豪	-2109
勇	-2110
召	-2111
铜	-2112
叫	-2113
徽	-2114
孝	-2115
勋	-2116
伟	-2117
吕	-2118
崎	-2119
软	-2120
缩	-2121
脑	-2122
柱	-2123
盐	-2124
弃	-2125
汤	-2126
截	-2127
避	-2128
糖	-2129
牧	-2130
敏	-2131
菜	-2132
针	-2133
础	-2134
浪	-2135
订	-2136
谈	-2137
萧	-2138
颜	-2139
疑	-2140
牠	-2141
恋	-2142
枚	-2143
妇	-2144
邮	-2145
陶	-2146
圈	-2147
坏	-2148
雕	-2149
贤	-2150
妮	-2151
墙	-2152
〉	-2153
否	-2154
误	-2155
套	-2156
〈	-2157
尊	-2158
阻	-2159
郭	-2160
坐	-2161
锡	-2162
鬼	-2163
ル	-2164
裁	-2165
贺	-2166
仔	-2167
イ	-2168
潮	-2169
卖	-2170
仓	-2171
掌	-2172
伐	-2173
桃	-2174
诉	-2175
暂	-2176
付	-2177
宿	-2178
闭	-2179
赤	-2180
驱	-2181
紧	-2182
陷	-2183
享	-2184
е	-2185
沉	-2186
迫	-2187
泛	-2188
析	-2189
裂	-2190
讯	-2191
萄	-2192
幻	-2193
丘	-2194
繁	-2195
灰	-2196
乃	-2197
跨	-2198
倒	-2199
阁	-2200
笔	-2201
俗	-2202
宪	-2203
昆	-2204
燕	-2205
沈	-2206
н	-2207
靖	-2208
振	-2209
坑	-2210
触	-2211
昂	-2212
紫	-2213
赖	-2214
跑	-2215
祭	-2216
壤	-2217
裔	-2218
熙	-2219
怪	-2220
柴	-2221
偏	-2222
疫	-2223
贸	-2224
疾	-2225
敬	-2226
颗	-2227
纹	-2228
租	-2229
逊	-2230
兽	-2231
锋	-2232
纯	-2233
辞	-2234
纸	-2235
鹿	-2236
葬	-2237
餐	-2238
累	-2239
琳	-2240
珍	-2241
壁	-2242
柯	-2243
硬	-2244
粉	-2245
伸	-2246
伴	-2247
跳	-2248
俊	-2249
弘	-2250
р	-2251
览	-2252
猎	-2253
孟	-2254
朋	-2255
炎	-2256
障	-2257
犹	-2258
烧	-2259
赠	-2260
栖	-2261
辉	-2262
Q	-2263
贾	-2264
с	-2265
恢	-2266
厚	-2267
械	-2268
伏	-2269
刀	-2270
茶	-2271
偶	-2272
隐	-2273
蛇	-2274
迈	-2275
晶	-2276
é	-2277
旁	-2278
龄	-2279
熊	-2280
困	-2281
稳	-2282
鼓	-2283
残	-2284
捷	-2285
谱	-2286
埔	-2287
错	-2288
殊	-2289
灯	-2290
葛	-2291
宅	-2292
慕	-2293
莲	-2294
番	-2295
箭	-2296
し	-2297
档	-2298
柳	-2299
厦	-2300
乳	-2301
轴	-2302
玄	-2303
燃	-2304
估	-2305
折	-2306
吃	-2307
ト	-2308
陕	-2309
杉	-2310
挑	-2311
猪	-2312
涉	-2313
纵	-2314
抚	-2315
篮	-2316
撒	-2317
汗	-2318
垒	-2319
碑	-2320
零	-2321
奴	-2322
凡	-2323
猫	-2324
涅	-2325
禄	-2326
苗	-2327
ラ	-2328
艇	-2329
冯	-2330
q	-2331
邀	-2332
岭	-2333
狱	-2334
卿	-2335
慈	-2336
拆	-2337
绪	-2338
叛	-2339
叙	-2340
答	-2341
咸	-2342
腹	-2343
尖	-2344
诊	-2345
羊	-2346
衔	-2347
藩	-2348
虚	-2349
沟	-2350
衡	-2351
潘	-2352
贯	-2353
慢	-2354
艘	-2355
祥	-2356
饮	-2357
灾	-2358
拒	-2359
弱	-2360
允	-2361
尉	-2362
幅	-2363
桂	-2364
蔡	-2365
盗	-2366
リ	-2367
圳	-2368
斑	-2369
ク	-2370
熟	-2371
坛	-2372
贞	-2373
搭	-2374
绕	-2375
か	-2376
厘	-2377
ア	-2378
叔	-2379
惊	-2380
痛	-2381
な	-2382
驶	-2383
税	-2384
芝	-2385
纲	-2386
詹	-2387
撞	-2388
粒	-2389
娱	-2390
烟	-2391
к	-2392
遣	-2393
诚	-2394
储	-2395
ん	-2396
梯	-2397
苦	-2398
ッ	-2399
乾	-2400
と	-2401
遂	-2402
驾	-2403
芳	-2404
た	-2405
句	-2406
浮	-2407
淡	-2408
茂	-2409
坊	-2410
笑	-2411
掉	-2412
覆	-2413
倍	-2414
峡	-2415
彦	-2416
赐	-2417
牵	-2418
遍	-2419
床	-2420
浩	-2421
胶	-2422
浅	-2423
鸡	-2424
崔	-2425
促	-2426
邓	-2427
键	-2428
彭	-2429
侠	-2430
拓	-2431
岳	-2432
妃	-2433
罕	-2434
枢	-2435
诞	-2436
塘	-2437
仲	-2438
拟	-2439
厄	-2440
в	-2441
亭	-2442
勤	-2443
り	-2444
狮	-2445
瓜	-2446
勃	-2447
膜	-2448
趣	-2449
杭	-2450
鹰	-2451
磁	-2452
卒	-2453
卓	-2454
详	-2455
彰	-2456
欲	-2457
宏	-2458
挂	-2459
秒	-2460
泥	-2461
→	-2462
°	-2463
仰	-2464
浓	-2465
券	-2466
泳	-2467
宙	-2468
晓	-2469
坎	-2470
溶	-2471
鉴	-2472
虑	-2473
塑	-2474
丈	-2475
慧	-2476
肃	-2477
阪	-2478
吨	-2479
洗	-2480
裕	-2481
筹	-2482
屯	-2483
う	-2484
硕	-2485
л	-2486
粤	-2487
枝	-2488
隧	-2489
匈	-2490
弥	-2491
т	-2492
る	-2493
屏	-2494
霸	-2495
喷	-2496
魂	-2497
插	-2498
疏	-2499
ま	-2500
鼠	-2501
箱	-2502
缓	-2503
巧	-2504
笼	-2505
丧	-2506
欣	-2507
锁	-2508
肥	-2509
湿	-2510
胸	-2511
劲	-2512
迅	-2513
淮	-2514
饭	-2515
豆	-2516
妈	-2517
谓	-2518
凭	-2519
犬	-2520
舒	-2521
泊	-2522
娘	-2523
碳	-2524
帅	-2525
柔	-2526
丙	-2527
砲	-2528
拳	-2529
尸	-2530
吏	-2531
酶	-2532
仑	-2533
悬	-2534
撰	-2535
鸣	-2536
荒	-2537
洁	-2538
坂	-2539
袁	-2540
扮	-2541
龟	-2542
函	-2543
忆	-2544
狂	-2545
倾	-2546
壮	-2547
斜	-2548
跃	-2549
讷	-2550
婆	-2551
搬	-2552
郊	-2553
垂	-2554
&	-2555
玻	-2556
卵	-2557
狼	-2558
戒	-2559
雀	-2560
轰	-2561
铃	-2562
晨	-2563
阅	-2564
嫁	-2565
割	-2566
辰	-2567
丸	-2568
祝	-2569
怒	-2570
鲍	-2571
冒	-2572
孤	-2573
逆	-2574
串	-2575
凉	-2576
凌	-2577
彻	-2578
珊	-2579
に	-2580
姬	-2581
嗣	-2582
旦	-2583
赴	-2584
狄	-2585
忍	-2586
雌	-2587
レ	-2588
焦	-2589
み	-2590
夷	-2591
乏	-2592
シ	-2593
诏	-2594
循	-2595
傅	-2596
润	-2597
マ	-2598
粮	-2599
励	-2600
娃	-2601
岗	-2602
株	-2603
壳	-2604
狗	-2605
さ	-2606
嘴	-2607
衍	-2608
窗	-2609
杆	-2610
耀	-2611
搜	-2612
鸿	-2613
僧	-2614
链	-2615
旺	-2616
契	-2617
寒	-2618
ロ	-2619
脊	-2620
甸	-2621
翁	-2622
陀	-2623
弦	-2624
碎	-2625
叉	-2626
き	-2627
碍	-2628
胎	-2629
脏	-2630
侦	-2631
肌	-2632
仿	-2633
脂	-2634
伙	-2635
ら	-2636
罚	-2637
填	-2638
翠	-2639
矶	-2640
滩	-2641
剩	-2642
奶	-2643
タ	-2644
卜	-2645
鼻	-2646
盾	-2647
ジ	-2648
缅	-2649
既	-2650
曰	-2651
踪	-2652
煤	-2653
腾	-2654
粗	-2655
廊	-2656
淘	-2657
喀	-2658
胁	-2659
厝	-2660
蜂	-2661
癌	-2662
寄	-2663
旨	-2664
鹤	-2665
姊	-2666
薛	-2667
凝	-2668
氢	-2669
衰	-2670
渔	-2671
璃	-2672
疆	-2673
钦	-2674
潭	-2675
ド	-2676
仇	-2677
貌	-2678
净	-2679
寮	-2680
偷	-2681
椎	-2682
滚	-2683
お	-2684
违	-2685
ち	-2686
屿	-2687
朴	-2688
赶	-2689
坝	-2690
荐	-2691
蕾	-2692
─	-2693
辐	-2694
姚	-2695
袖	-2696
捐	-2697
灌	-2698
摇	-2699
铺	-2700
丞	-2701
污	-2702
蜜	-2703
磨	-2704
页	-2705
扰	-2706
カ	-2707
抽	-2708
姜	-2709
薄	-2710
邑	-2711
く	-2712
幽	-2713
吐	-2714
愈	-2715
尝	-2716
夕	-2717
掘	-2718
丑	-2719
贫	-2720
迟	-2721
樱	-2722
隋	-2723
斤	-2724
恭	-2725
抑	-2726
庞	-2727
抢	-2728
苑	-2729
螺	-2730
琉	-2731
腺	-2732
奔	-2733
稿	-2734
儒	-2735
肠	-2736
挪	-2737
祀	-2738
闪	-2739
汰	-2740
褐	-2741
纷	-2742
俘	-2743
妙	-2744
は	-2745
奎	-2746
翔	-2747
逢	-2748
棘	-2749
悉	-2750
堆	-2751
询	-2752
て	-2753
兆	-2754
盆	-2755
蒸	-2756
湘	-2757
坪	-2758
阔	-2759
仕	-2760
琼	-2761
仆	-2762
叠	-2763
吾	-2764
~	-2765
韵	-2766
巢	-2767
斋	-2768
揭	-2769
擎	-2770
弯	-2771
寸	-2772
猛	-2773
颈	-2774
歇	-2775
醒	-2776
あ	-2777
砂	-2778
汝	-2779
卑	-2780
尹	-2781
寨	-2782
铭	-2783
赋	-2784
д	-2785
斩	-2786
肺	-2787
递	-2788
汀	-2789
襄	-2790
贴	-2791
丛	-2792
鳞	-2793
鳄	-2794
耗	-2795
栗	-2796
硫	-2797
聘	-2798
谭	-2799
添	-2800
醇	-2801
栏	-2802
梨	-2803
稍	-2804
蜥	-2805
が	-2806
刷	-2807
斐	-2808
劝	-2809
祠	-2810
堪	-2811
姻	-2812
圭	-2813
妖	-2814
劫	-2815
畔	-2816
こ	-2817
鸭	-2818
碧	-2819
蒋	-2820
巫	-2821
惟	-2822
芒	-2823
氨	-2824
瓶	-2825
宰	-2826
扶	-2827
悲	-2828
泡	-2829
荆	-2830
咖	-2831
厢	-2832
涂	-2833
肢	-2834
肤	-2835
渊	-2836
フ	-2837
м	-2838
债	-2839
耐	-2840
措	-2841
冢	-2842
伪	-2843
穴	-2844
キ	-2845
棕	-2846
纤	-2847
栋	-2848
珀	-2849
谦	-2850
玲	-2851
禅	-2852
雇	-2853
袋	-2854
雍	-2855
テ	-2856
迦	-2857
腔	-2858
稻	-2859
麟	-2860
姑	-2861
肖	-2862
虹	-2863
敢	-2864
挖	-2865
屈	-2866
邪	-2867
剪	-2868
吹	-2869
稣	-2870
氯	-2871
诱	-2872
砖	-2873
腿	-2874
甜	-2875
伽	-2876
抱	-2877
闲	-2878
吞	-2879
吧	-2880
忧	-2881
#	-2882
オ	-2883
睡	-2884
エ	-2885
尿	-2886
爷	-2887
聪	-2888
囊	-2889
肿	-2890
弓	-2891
贼	-2892
遵	-2893
コ	-2894
寓	-2895
汪	-2896
握	-2897
舟	-2898
怕	-2899
擅	-2900
腓	-2901
蜀	-2902
啡	-2903
扫	-2904
祐	-2905
甫	-2906
钻	-2907
ا	-2908
谥	-2909
れ	-2910
矢	-2911
粹	-2912
炼	-2913
鄂	-2914
桓	-2915
涵	-2916
埋	-2917
拱	-2918
薇	-2919
屠	-2920
摆	-2921
琪	-2922
辩	-2923
雾	-2924
颇	-2925
抓	-2926
蝶	-2927
肝	-2928
逸	-2929
闸	-2930
胆	-2931
×	-2932
谊	-2933
逼	-2934
瘤	-2935
魁	-2936
绳	-2937
й	-2938
プ	-2939
α	-2940
帆	-2941
ナ	-2942
鼎	-2943
遥	-2944
沼	-2945
忘	-2946
纬	-2947
宛	-2948
で	-2949
怖	-2950
惯	-2951
祯	-2952
蹈	-2953
狭	-2954
跋	-2955
ь	-2956
翌	-2957
溯	-2958
札	-2959
爪	-2960
婴	-2961
濑	-2962
舱	-2963
辨	-2964
漠	-2965
毅	-2966
晴	-2967
胺	-2968
ィ	-2969
铎	-2970
夹	-2971
宠	-2972
拖	-2973
淑	-2974
苯	-2975
っ	-2976
茅	-2977
孕	-2978
吻	-2979
郁	-2980
披	-2981
を	-2982
携	-2983
翅	-2984
阮	-2985
デ	-2986
庶	-2987
〜	-2988
崩	-2989
凶	-2990
腐	-2991
菊	-2992
顷	-2993
磷	-2994
ム	-2995
罢	-2996
も	-2997
霞	-2998
渠	-2999
竟	-3000
饼	-3001
姿	-3002
拼	-3003
鲸	-3004
臂	-3005
炉	-3006
淳	-3007
忽	-3008
チ	-3009
桐	-3010
榄	-3011
恰	-3012
怡	-3013
娶	-3014
冕	-3015
菩	-3016
堤	-3017
奋	-3018
脸	-3019
巷	-3020
‧	-3021
藻	-3022
暖	-3023
邵	-3024
臀	-3025
豫	-3026
す	-3027
朵	-3028
慎	-3029
稀	-3030
у	-3031
滕	-3032
偿	-3033
悦	-3034
豹	-3035
铸	-3036
轩	-3037
押	-3038
闽	-3039
宴	-3040
芦	-3041
鹅	-3042
帽	-3043
忙	-3044
茵	-3045
谁	-3046
芙	-3047
惜	-3048
蒲	-3049
礁	-3050
锐	-3051
ャ	-3052
碟	-3053
坠	-3054
茎	-3055
梵	-3056
柄	-3057
蝠	-3058
耕	-3059
眠	-3060
旬	-3061
扁	-3062
爸	-3063
澄	-3064
碰	-3065
矮	-3066
扑	-3067
碱	-3068
贩	-3069
崖	-3070
筒	-3071
颌	-3072
á	-3073
矩	-3074
穷	-3075
涌	-3076
浆	-3077
忌	-3078
腰	-3079
芭	-3080
掠	-3081
咨	-3082
厨	-3083
狐	-3084
瓷	-3085
つ	-3086
摧	-3087
催	-3088
赌	-3089
鹏	-3090
萝	-3091
ミ	-3092
肩	-3093
惨	-3094
踢	-3095
寇	-3096
烷	-3097
茄	-3098
辟	-3099
侨	-3100
驳	-3101
陨	-3102
バ	-3103
蛙	-3104
骏	-3105
娅	-3106
尘	-3107
募	-3108
グ	-3109
颖	-3110
酷	-3111
ズ	-3112
卧	-3113
哀	-3114
爬	-3115
棉	-3116
猴	-3117
ビ	-3118
岐	-3119
溃	-3120
嫌	-3121
サ	-3122
悠	-3123
亩	-3124
踏	-3125
削	-3126
趋	-3127
逻	-3128
蛛	-3129
亥	-3130
邱	-3131
г	-3132
陪	-3133
旭	-3134
殷	-3135
畅	-3136
敲	-3137
弄	-3138
恨	-3139
镑	-3140
橄	-3141
ニ	-3142
舌	-3143
绵	-3144
眉	-3145
逮	-3146
喙	-3147
矛	-3148
毗	-3149
颂	-3150
メ	-3151
惧	-3152
橡	-3153
穗	-3154
庚	-3155
パ	-3156
驹	-3157
虏	-3158
’	-3159
肾	-3160
蚀	-3161
绑	-3162
凰	-3163
虾	-3164
侣	-3165
ブ	-3166
咏	-3167
廖	-3168
吊	-3169
烯	-3170
抄	-3171
挡	-3172
勘	-3173
兔	-3174
愤	-3175
睛	-3176
窄	-3177
竣	-3178
暨	-3179
鞋	-3180
烂	-3181
佑	-3182
酿	-3183
漏	-3184
唤	-3185
戊	-3186
荡	-3187
沪	-3188
帐	-3189
醉	-3190
捉	-3191
卸	-3192
窝	-3193
炭	-3194
盈	-3195
ウ	-3196
酮	-3197
氟	-3198
や	-3199
ダ	-3200
黛	-3201
苍	-3202
だ	-3203
祈	-3204
抛	-3205
ュ	-3206
咒	-3207
裴	-3208
漂	-3209
蓄	-3210
ü	-3211
辈	-3212
蓬	-3213
骗	-3214
昏	-3215
昔	-3216
摔	-3217
颅	-3218
掩	-3219
佥	-3220
哪	-3221
垣	-3222
蝙	-3223
锅	-3224
乞	-3225
ɛ	-3226
涛	-3227
鸦	-3228
冻	-3229
攀	-3230
】	-3231
戌	-3232
疯	-3233
【	-3234
я	-3235
桌	-3236
缝	-3237
奸	-3238
汶	-3239
誓	-3240
ʁ	-3241
庸	-3242
芽	-3243
拨	-3244
祸	-3245
阜	-3246
椅	-3247
じ	-3248
悟	-3249
贷	-3250
扇	-3251
厌	-3252
饲	-3253
扣	-3254
擢	-3255
趁	-3256
斥	-3257
庵	-3258
贬	-3259
颠	-3260
框	-3261
滋	-3262
艳	-3263
帖	-3264
葵	-3265
劾	-3266
ل	-3267
熔	-3268
濒	-3269
泄	-3270
凸	-3271
杏	-3272
棱	-3273
浸	-3274
奠	-3275
呎	-3276
喝	-3277
牲	-3278
ハ	-3279
胃	-3280
嫩	-3281
虞	-3282
斌	-3283
窦	-3284
袜	-3285
囚	-3286
钠	-3287
猜	-3288
喉	-3289
履	-3290
け	-3291
枫	-3292
纺	-3293
遮	-3294
痕	-3295
ā	-3296
よ	-3297
镰	-3298
慰	-3299
薪	-3300
倡	-3301
镶	-3302
菱	-3303
哭	-3304
匠	-3305
窑	-3306
屡	-3307
饶	-3308
歧	-3309
鲨	-3310
驰	-3311
ひ	-3312
槽	-3313
瑰	-3314
堀	-3315
蕃	-3316
谐	-3317
玫	-3318
侄	-3319
淀	-3320
璋	-3321
え	-3322
橙	-3323
蜘	-3324
楠	-3325
凹	-3326
冀	-3327
旱	-3328
锥	-3329
怨	-3330
泪	-3331
唇	-3332
尧	-3333
惑	-3334
笃	-3335
汁	-3336
坤	-3337
坞	-3338
翡	-3339
‘	-3340
糕	-3341
禧	-3342
韶	-3343
壬	-3344
庇	-3345
ガ	-3346
懿	-3347
わ	-3348
氮	-3349
猿	-3350
徙	-3351
笛	-3352
啤	-3353
涡	-3354
怎	-3355
敷	-3356
坟	-3357
浴	-3358
纠	-3359
酋	-3360
肇	-3361
劣	-3362
牟	-3363
ч	-3364
酯	-3365
祷	-3366
伞	-3367
撑	-3368
戚	-3369
欠	-3370
躲	-3371
扭	-3372
め	-3373
榴	-3374
裸	-3375
闯	-3376
跌	-3377
泌	-3378
畜	-3379
辣	-3380
纱	-3381
棚	-3382
缴	-3383
铝	-3384
黏	-3385
í	-3386
擦	-3387
践	-3388
ョ	-3389
嫡	-3390
骚	-3391
挺	-3392
苹	-3393
狩	-3394
С	-3395
浑	-3396
瑶	-3397
酱	-3398
啦	-3399
贪	-3400
丢	-3401
寅	-3402
酰	-3403
哺	-3404
栽	-3405
朔	-3406
勾	-3407
欺	-3408
煌	-3409
筋	-3410
盒	-3411
炳	-3412
ö	-3413
奕	-3414
漆	-3415
塌	-3416
і	-3417
蛮	-3418
梓	-3419
喻	-3420
庐	-3421
萌	-3422
ο	-3423
彗	-3424
胀	-3425
柜	-3426
诛	-3427
拯	-3428
雁	-3429
癸	-3430
瑜	-3431
廿	-3432
焰	-3433
缔	-3434
谨	-3435
夸	-3436
锯	-3437
椭	-3438
湛	-3439
̃	-3440
橘	-3441
谕	-3442
β	-3443
绥	-3444
彬	-3445
瑚	-3446
婷	-3447
燥	-3448
瓣	-3449
厉	-3450
ゆ	-3451
垩	-3452
冥	-3453
妆	-3454
弧	-3455
粘	-3456
竖	-3457
烦	-3458
剌	-3459
盲	-3460
谣	-3461
※	-3462
ノ	-3463
б	-3464
绰	-3465
ы	-3466
纂	-3467
ó	-3468
删	-3469
吗	-3470
ろ	-3471
佣	-3472
滤	-3473
缸	-3474
罩	-3475
笠	-3476
п	-3477
荫	-3478
秩	-3479
喇	-3480
赔	-3481
摘	-3482
哩	-3483
搞	-3484
秉	-3485
埠	-3486
簧	-3487
邨	-3488
墩	-3489
邸	-3490
雯	-3491
蟹	-3492
钩	-3493
赣	-3494
狸	-3495
讼	-3496
モ	-3497
妾	-3498
谏	-3499
闹	-3500
麓	-3501
宦	-3502
漳	-3503
稽	-3504
逾	-3505
淋	-3506
猩	-3507
孢	-3508
墅	-3509
禾	-3510
陇	-3511
ä	-3512
畏	-3513
霉	-3514
趾	-3515
谜	-3516
煮	-3517
爽	-3518
鲈	-3519
沧	-3520
膀	-3521
莺	-3522
饥	-3523
厥	-3524
硅	-3525
蓉	-3526
磅	-3527
セ	-3528
桶	-3529
棍	-3530
卯	-3531
禹	-3532
咬	-3533
滴	-3534
冶	-3535
钙	-3536
饱	-3537
拘	-3538
擒	-3539
è	-3540
剥	-3541
僚	-3542
酵	-3543
糊	-3544
惩	-3545
蚁	-3546
ワ	-3547
艮	-3548
鞍	-3549
嵩	-3550
傲	-3551
釜	-3552
柬	-3553
讽	-3554
拾	-3555
挤	-3556
铅	-3557
骼	-3558
绎	-3559
萍	-3560
牺	-3561
骸	-3562
嵌	-3563
禽	-3564
帜	-3565
牢	-3566
戦	-3567
窃	-3568
檀	-3569
舅	-3570
肪	-3571
窟	-3572
椒	-3573
寡	-3574
弼	-3575
蜡	-3576
畴	-3577
鲤	-3578
绅	-3579
瀑	-3580
闵	-3581
з	-3582
缪	-3583
岚	-3584
叹	-3585
歼	-3586
噶	-3587
辱	-3588
隙	-3589
霖	-3590
烤	-3591
せ	-3592
壶	-3593
钧	-3594
罐	-3595
飓	-3596
舆	-3597
妥	-3598
巩	-3599
掷	-3600
轶	-3601
芯	-3602
虐	-3603
酉	-3604
魅	-3605
戎	-3606
焚	-3607
$	-3608
梭	-3609
鞭	-3610
滥	-3611
ェ	-3612
诈	-3613
苷	-3614
疼	-3615
ケ	-3616
娄	-3617
睿	-3618
沛	-3619
竭	-3620
硝	-3621
缠	-3622
匡	-3623
堵	-3624
幌	-3625
勉	-3626
霜	-3627
艰	-3628
拦	-3629
噪	-3630
仗	-3631
瑙	-3632
鹦	-3633
骆	-3634
邹	-3635
剖	-3636
聂	-3637
畿	-3638
舜	-3639
孚	-3640
髓	-3641
膨	-3642
噬	-3643
褒	-3644
蜒	-3645
乒	-3646
ي	-3647
渗	-3648
吓	-3649
幢	-3650
绣	-3651
寂	-3652
ς	-3653
杖	-3654
棠	-3655
蜿	-3656
ن	-3657
胤	-3658
犀	-3659
م	-3660
媛	-3661
汕	-3662
ツ	-3663
峻	-3664
渝	-3665
阎	-3666
绒	-3667
咲	-3668
ゃ	-3669
绫	-3670
晃	-3671
ر	-3672
滞	-3673
碗	-3674
莹	-3675
岑	-3676
ν	-3677
妓	-3678
А	-3679
垦	-3680
悔	-3681
藔	-3682
婉	-3683
钓	-3684
垫	-3685
•	-3686
莞	-3687
榆	-3688
淹	-3689
谍	-3690
ネ	-3691
梗	-3692
晖	-3693
К	-3694
僵	-3695
烹	-3696
砍	-3697
菁	-3698
堕	-3699
臭	-3700
μ	-3701
匪	-3702
浊	-3703
矣	-3704
ι	-3705
凑	-3706
曜	-3707
蔚	-3708
雏	-3709
琦	-3710
嫔	-3711
砌	-3712
皓	-3713
刃	-3714
哉	-3715
埼	-3716
盔	-3717
阀	-3718
懂	-3719
ɔ	-3720
樊	-3721
檐	-3722
氛	-3723
瞬	-3724
ボ	-3725
羌	-3726
贿	-3727
赦	-3728
钥	-3729
巳	-3730
巾	-3731
骤	-3732
邢	-3733
ポ	-3734
咪	-3735
诵	-3736
迄	-3737
В	-3738
簿	-3739
芜	-3740
涨	-3741
茜	-3742
淫	-3743
舶	-3744
肚	-3745
祁	-3746
ょ	-3747
驼	-3748
М	-3749
啸	-3750
殉	-3751
倪	-3752
兖	-3753
侏	-3754
泷	-3755
悼	-3756
膏	-3757
飘	-3758
耿	-3759
疲	-3760
锤	-3761
ず	-3762
垃	-3763
羚	-3764
赎	-3765
ど	-3766
愚	-3767
枕	-3768
〕	-3769
蔽	-3770
圾	-3771
俞	-3772
ə	-3773
沂	-3774
哇	-3775
〔	-3776
暑	-3777
磐	-3778
泾	-3779
鹉	-3780
牡	-3781
俯	-3782
槟	-3783
膝	-3784
聊	-3785
芸	-3786
ρ	-3787
彝	-3788
挝	-3789
钞	-3790
肆	-3791
钉	-3792
潟	-3793
蕉	-3794
豚	-3795
歉	-3796
蔬	-3797
匿	-3798
胚	-3799
ベ	-3800
渭	-3801
焕	-3802
茹	-3803
驿	-3804
犁	-3805
挽	-3806
梧	-3807
肋	-3808
ァ	-3809
呢	-3810
饿	-3811
哨	-3812
蕴	-3813
阐	-3814
愉	-3815
敕	-3816
薯	-3817
胰	-3818
炒	-3819
ば	-3820
蟾	-3821
棺	-3822
祇	-3823
幡	-3824
痴	-3825
缀	-3826
墟	-3827
洼	-3828
蝴	-3829
忒	-3830
沦	-3831
荃	-3832
账	-3833
骂	-3834
娇	-3835
婿	-3836
灿	-3837
谅	-3838
睦	-3839
钾	-3840
吟	-3841
樟	-3842
溢	-3843
蔓	-3844
罹	-3845
脆	-3846
茱	-3847
桦	-3848
酬	-3849
闰	-3850
冤	-3851
>	-3852
甄	-3853
黔	-3854
倭	-3855
苻	-3856
埤	-3857
竺	-3858
莽	-3859
嶋	-3860
狙	-3861
و	-3862
匙	-3863
П	-3864
缆	-3865
霄	-3866
嗜	-3867
咀	-3868
龚	-3869
浚	-3870
瀬	-3871
裤	-3872
そ	-3873
澜	-3874
吁	-3875
丕	-3876
乓	-3877
舖	-3878
赚	-3879
τ	-3880
叱	-3881
衙	-3882
́	-3883
廓	-3884
凿	-3885
渥	-3886
枯	-3887
藉	-3888
泼	-3889
娟	-3890
菇	-3891
裹	-3892
匀	-3893
汐	-3894
霆	-3895
袍	-3896
俩	-3897
鳃	-3898
喊	-3899
抹	-3900
诠	-3901
渤	-3902
摸	-3903
亏	-3904
汾	-3905
晏	-3906
菅	-3907
ε	-3908
虔	-3909
馨	-3910
匣	-3911
杠	-3912
咤	-3913
瑾	-3914
钝	-3915
−	-3916
裙	-3917
桨	-3918
渴	-3919
刹	-3920
胖	-3921
荔	-3922
ヤ	-3923
觅	-3924
孵	-3925
ふ	-3926
捞	-3927
蕊	-3928
恼	-3929
荀	-3930
Р	-3931
疹	-3932
寝	-3933
薰	-3934
堰	-3935
琅	-3936
鸠	-3937
奢	-3938
溉	-3939
涩	-3940
瑛	-3941
ピ	-3942
碘	-3943
岱	-3944
衷	-3945
峨	-3946
祚	-3947
腕	-3948
谟	-3949
梳	-3950
λ	-3951
粟	-3952
锣	-3953
х	-3954
啊	-3955
淆	-3956
抬	-3957
谎	-3958
垄	-3959
彪	-3960
倚	-3961
怜	-3962
―	-3963
诰	-3964
泗	-3965
缉	-3966
☆	-3967
ب	-3968
羞	-3969
筿	-3970
蝉	-3971
膳	-3972
ц	-3973
韧	-3974
岔	-3975
郝	-3976
澎	-3977
昊	-3978
惹	-3979
溴	-3980
绮	-3981
瞄	-3982
迭	-3983
敖	-3984
咽	-3985
沁	-3986
■	-3987
粪	-3988
衞	-3989
晰	-3990
ザ	-3991
à	-3992
桩	-3993
沢	-3994
躯	-3995
骄	-3996
栅	-3997
秃	-3998
酪	-3999
轿	-4000
屑	-4001
曝	-4002
娥	-4003
您	-4004
诬	-4005
瘦	-4006
宵	-4007
俭	-4008
蹄	-4009
镁	-4010
鹫	-4011
皋	-4012
妍	-4013
厕	-4014
泻	-4015
勿	-4016
戸	-4017
纶	-4018
耻	-4019
臼	-4020
兀	-4021
麒	-4022
鲷	-4023
泵	-4024
邺	-4025
瞳	-4026
ほ	-4027
ç	-4028
า	-4029
畑	-4030
靶	-4031
懋	-4032
钮	-4033
匾	-4034
滇	-4035
ソ	-4036
棵	-4037
楷	-4038
衬	-4039
γ	-4040
搏	-4041
磺	-4042
姨	-4043
倩	-4044
吡	-4045
锌	-4046
恪	-4047
潼	-4048
肽	-4049
阙	-4050
琛	-4051
绸	-4052
焉	-4053
萃	-4054
د	-4055
崛	-4056
玮	-4057
稠	-4058
醛	-4059
隼	-4060
ゴ	-4061
妄	-4062
曦	-4063
缮	-4064
沾	-4065
蜴	-4066
臧	-4067
颚	-4068
祂	-4069
毙	-4070
葱	-4071
ご	-4072
이	-4073
挫	-4074
淇	-4075
磊	-4076
羟	-4077
讳	-4078
晕	-4079
嘎	-4080
莓	-4081
σ	-4082
É	-4083
ギ	-4084
剿	-4085
孜	-4086
泣	-4087
鑫	-4088
翟	-4089
摊	-4090
ร	-4091
溥	-4092
顽	-4093
汴	-4094
熹	-4095
隅	-4096
渣	-4097
焊	-4098
κ	-4099
苔	-4100
鹭	-4101
佚	-4102
帛	-4103
孺	-4104
诅	-4105
睹	-4106
龛	-4107
曙	-4108
暹	-4109
ね	-4110
夭	-4111
璧	-4112
俸	-4113
敞	-4114
洽	-4115
靴	-4116
兑	-4117
彤	-4118
陡	-4119
栓	-4120
弊	-4121
诃	-4122
沫	-4123
萱	-4124
枣	-4125
卦	-4126
ぎ	-4127
Б	-4128
慌	-4129
黒	-4130
ゲ	-4131
溜	-4132
ホ	-4133
榕	-4134
吋	-4135
黜	-4136
搁	-4137
糟	-4138
壹	-4139
雳	-4140
谴	-4141
Д	-4142
舷	-4143
Н	-4144
戍	-4145
庠	-4146
颐	-4147
尻	-4148
锈	-4149
萼	-4150
裘	-4151
斧	-4152
傍	-4153
昼	-4154
兜	-4155
恕	-4156
玺	-4157
浏	-4158
谬	-4159
沸	-4160
漕	-4161
珂	-4162
歴	-4163
ô	-4164
苟	-4165
蓟	-4166
鸽	-4167
嘲	-4168
溺	-4169
Т	-4170
琵	-4171
僖	-4172
蝇	-4173
烃	-4174
衫	-4175
峙	-4176
浜	-4177
悍	-4178
椰	-4179
跖	-4180
ヒ	-4181
○	-4182
伶	-4183
缚	-4184
鞘	-4185
捧	-4186
筛	-4187
萤	-4188
毓	-4189
暮	-4190
娴	-4191
琶	-4192
酚	-4193
姫	-4194
镖	-4195
塾	-4196
淄	-4197
糙	-4198
铀	-4199
冉	-4200
ぶ	-4201
庾	-4202
沮	-4203
扳	-4204
麾	-4205
篡	-4206
撃	-4207
箕	-4208
む	-4209
棣	-4210
煎	-4211
徳	-4212
撕	-4213
锻	-4214
ɑ	-4215
卤	-4216
於	-4217
笨	-4218
霹	-4219
耆	-4220
侬	-4221
晤	-4222
皂	-4223
ペ	-4224
槐	-4225
绞	-4226
阱	-4227
晟	-4228
س	-4229
ú	-4230
恤	-4231
洒	-4232
瀛	-4233
瞻	-4234
馈	-4235
芮	-4236
褶	-4237
砾	-4238
′	-4239
ゅ	-4240
邯	-4241
驯	-4242
π	-4243
晒	-4244
ぐ	-4245
硼	-4246
芹	-4247
逗	-4248
骁	-4249
盎	-4250
锂	-4251
炽	-4252
皖	-4253
颍	-4254
篷	-4255
绶	-4256
巻	-4257
蚕	-4258
翊	-4259
敛	-4260
苞	-4261
饷	-4262
峭	-4263
葫	-4264
発	-4265
穹	-4266
蝎	-4267
羲	-4268
呆	-4269
灶	-4270
Г	-4271
関	-4272
ヴ	-4273
嘱	-4274
喂	-4275
昱	-4276
眷	-4277
赁	-4278
吵	-4279
揽	-4280
伝	-4281
歳	-4282
皱	-4283
茉	-4284
萎	-4285
甥	-4286
暱	-4287
â	-4288
鄞	-4289
ß	-4290
妒	-4291
η	-4292
矽	-4293
釉	-4294
□	-4295
稚	-4296
巅	-4297
脇	-4298
崁	-4299
瘟	-4300
乍	-4301
ˈ	-4302
骠	-4303
陌	-4304
攸	-4305
沐	-4306
醋	-4307
悚	-4308
芷	-4309
愁	-4310
沽	-4311
泸	-4312
杞	-4313
柠	-4314
蔗	-4315
莒	-4316
抒	-4317
榈	-4318
媚	-4319
憾	-4320
膛	-4321
岂	-4322
祺	-4323
昙	-4324
奚	-4325
濮	-4326
哆	-4327
苇	-4328
筠	-4329
铲	-4330
馏	-4331
楽	-4332
浇	-4333
煞	-4334
烛	-4335
挟	-4336
眶	-4337
蚌	-4338
饪	-4339
へ	-4340
洙	-4341
脾	-4342
潍	-4343
镍	-4344
陛	-4345
珪	-4346
蟒	-4347
О	-4348
烘	-4349
钵	-4350
褚	-4351
檬	-4352
δ	-4353
蚊	-4354
絮	-4355
颊	-4356
醚	-4357
寰	-4358
貂	-4359
佬	-4360
扔	-4361
炬	-4362
濠	-4363
ш	-4364
螈	-4365
栉	-4366
跗	-4367
ī	-4368
啶	-4369
薨	-4370
昕	-4371
沥	-4372
甬	-4373
雉	-4374
遁	-4375
芥	-4376
卉	-4377
栈	-4378
诡	-4379
ж	-4380
蛾	-4381
揆	-4382
莆	-4383
И	-4384
拐	-4385
炫	-4386
锰	-4387
鳗	-4388
び	-4389
恺	-4390
肛	-4391
慨	-4392
掳	-4393
浒	-4394
撮	-4395
隘	-4396
姪	-4397
炜	-4398
荧	-4399
躁	-4400
毯	-4401
衢	-4402
胥	-4403
蔷	-4404
朽	-4405
羡	-4406
椿	-4407
篆	-4408
鸥	-4409
胱	-4410
唑	-4411
恵	-4412
呕	-4413
禺	-4414
辜	-4415
璇	-4416
戟	-4417
贮	-4418
〇	-4419
ع	-4420
氰	-4421
翘	-4422
鹃	-4423
炀	-4424
郸	-4425
宸	-4426
懒	-4427
铠	-4428
実	-4429
侃	-4430
昧	-4431
夔	-4432
毘	-4433
俾	-4434
瀚	-4435
瘾	-4436
谒	-4437
镀	-4438
柑	-4439
韬	-4440
偕	-4441
媳	-4442
矫	-4443
腥	-4444
鞑	-4445
灼	-4446
畸	-4447
枋	-4448
咳	-4449
挣	-4450
堺	-4451
刮	-4452
坜	-4453
赂	-4454
靡	-4455
気	-4456
淤	-4457
悄	-4458
稷	-4459
傻	-4460
岬	-4461
県	-4462
弈	-4463
拌	-4464
驸	-4465
鸾	-4466
妊	-4467
瞒	-4468
踩	-4469
υ	-4470
绯	-4471
ی	-4472
桅	-4473
涧	-4474
琥	-4475
蕨	-4476
倦	-4477
殴	-4478
婢	-4479
嫉	-4480
帘	-4481
豁	-4482
钛	-4483
ة	-4484
蕙	-4485
衮	-4486
々	-4487
擂	-4488
汲	-4489
赈	-4490
斡	-4491
钰	-4492
驴	-4493
弩	-4494
陋	-4495
靼	-4496
ユ	-4497
‰	-4498
潞	-4499
ñ	-4500
吠	-4501
诫	-4502
瘫	-4503
傀	-4504
嘛	-4505
捆	-4506
娠	-4507
挚	-4508
š	-4509
戮	-4510
谯	-4511
湳	-4512
陂	-4513
沅	-4514
杵	-4515
น	-4516
贱	-4517
辗	-4518
י	-4519
闷	-4520
鳌	-4521
胪	-4522
俨	-4523
桢	-4524
儡	-4525
憩	-4526
ı	-4527
団	-4528
璟	-4529
峇	-4530
琮	-4531
疮	-4532
げ	-4533
圃	-4534
鼬	-4535
ί	-4536
壕	-4537
镐	-4538
捍	-4539
鉄	-4540
峪	-4541
旷	-4542
腻	-4543
鹈	-4544
仄	-4545
柿	-4546
柚	-4547
Л	-4548
墘	-4549
掀	-4550
绛	-4551
渚	-4552
匝	-4553
鹊	-4554
瑄	-4555
淞	-4556
琐	-4557
凛	-4558
哑	-4559
瓮	-4560
皈	-4561
挠	-4562
殡	-4563
妲	-4564
ت	-4565
妳	-4566
嘻	-4567
汞	-4568
嫂	-4569
馅	-4570
叡	-4571
绢	-4572
铬	-4573
郢	-4574
肴	-4575
ʃ	-4576
讶	-4577
魄	-4578
槛	-4579
诀	-4580
濬	-4581
蚂	-4582
朕	-4583
砷	-4584
跪	-4585
苳	-4586
蒜	-4587
筝	-4588
伎	-4589
笙	-4590
耍	-4591
铨	-4592
愧	-4593
砸	-4594
喘	-4595
桧	-4596
祉	-4597
楔	-4598
睐	-4599
逵	-4600
锚	-4601
搅	-4602
沌	-4603
燮	-4604
叮	-4605
盼	-4606
癫	-4607
洮	-4608
ë	-4609
掖	-4610
旻	-4611
埗	-4612
肘	-4613
鹛	-4614
邕	-4615
鸮	-4616
拷	-4617
钊	-4618
莪	-4619
簇	-4620
ː	-4621
●	-4622
璐	-4623
妨	-4624
寛	-4625
铉	-4626
粲	-4627
铵	-4628
弑	-4629
辕	-4630
跤	-4631
舵	-4632
萩	-4633
동	-4634
咎	-4635
颤	-4636
±	-4637
氦	-4638
胄	-4639
歩	-4640
涪	-4641
扯	-4642
糯	-4643
钏	-4644
隍	-4645
钹	-4646
趟	-4647
傣	-4648
蔵	-4649
ã	-4650
ŋ	-4651
弋	-4652
窥	-4653
糸	-4654
[	-4655
]	-4656
ø	-4657
悖	-4658
捣	-4659
銮	-4660
ा	-4661
狠	-4662
У	-4663
谛	-4664
羁	-4665
邝	-4666
丫	-4667
様	-4668
蛟	-4669
铂	-4670
靓	-4671
★	-4672
楞	-4673
樵	-4674
蝰	-4675
ォ	-4676
恳	-4677
蜗	-4678
脖	-4679
ح	-4680
瑠	-4681
猷	-4682
磡	-4683
腌	-4684
†	-4685
拢	-4686
栾	-4687
侈	-4688
槃	-4689
豊	-4690
贲	-4691
羧	-4692
苛	-4693
躺	-4694
刁	-4695
湄	-4696
्	-4697
觐	-4698
ぼ	-4699
丐	-4700
佟	-4701
滔	-4702
诹	-4703
荟	-4704
桜	-4705
螯	-4706
荥	-4707
穂	-4708
窖	-4709
捡	-4710
翎	-4711
ό	-4712
嗅	-4713
逍	-4714
忏	-4715
ê	-4716
ざ	-4717
べ	-4718
孀	-4719
烨	-4720
涟	-4721
専	-4722
腋	-4723
痪	-4724
剃	-4725
卞	-4726
譬	-4727
ه	-4728
煜	-4729
酥	-4730
痒	-4731
ū	-4732
་	-4733
栃	-4734
拇	-4735
蠕	-4736
吼	-4737
芋	-4738
痫	-4739
竿	-4740
籽	-4741
}	-4742
侮	-4743
崭	-4744
泓	-4745
김	-4746
谪	-4747
辻	-4748
ั	-4749
斛	-4750
桔	-4751
熏	-4752
리	-4753
θ	-4754
坍	-4755
澈	-4756
癣	-4757
膺	-4758
凋	-4759
劭	-4760
麝	-4761
耦	-4762
闾	-4763
苓	-4764
祜	-4765
胫	-4766
대	-4767
肱	-4768
ก	-4769
撼	-4770
우	-4771
»	-4772
佘	-4773
缙	-4774
畠	-4775
«	-4776
ม	-4777
総	-4778
辍	-4779
歙	-4780
拙	-4781
涤	-4782
蘑	-4783
←	-4784
涿	-4785
臻	-4786
ō	-4787
贻	-4788
=	-4789
ω	-4790
凳	-4791
拂	-4792
氹	-4793
遏	-4794
缎	-4795
ヨ	-4796
恬	-4797
ו	-4798
เ	-4799
毋	-4800
寞	-4801
醯	-4802
ゼ	-4803
缇	-4804
讹	-4805
宕	-4806
烽	-4807
瑕	-4808
鄙	-4809
笋	-4810
垮	-4811
挛	-4812
秽	-4813
阇	-4814
槌	-4815
瓯	-4816
踝	-4817
脓	-4818
鲀	-4819
昶	-4820
枭	-4821
浣	-4822
啄	-4823
殆	-4824
璜	-4825
飙	-4826
灏	-4827
ʒ	-4828
偃	-4829
帧	-4830
潇	-4831
轼	-4832
駅	-4833
咕	-4834
蓓	-4835
螂	-4836
巽	-4837
瞿	-4838
筵	-4839
ิ	-4840
奄	-4841
疡	-4842
姉	-4843
贰	-4844
ф	-4845
扈	-4846
昨	-4847
溧	-4848
粥	-4849
聆	-4850
荻	-4851
荼	-4852
사	-4853
辺	-4854
饵	-4855
俳	-4856
剔	-4857
樽	-4858
纥	-4859
匆	-4860
婺	-4861
弁	-4862
毎	-4863
沱	-4864
湍	-4865
蠢	-4866
鞠	-4867
亢	-4868
砚	-4869
의	-4870
ย	-4871
奘	-4872
抖	-4873
ง	-4874
蔑	-4875
侗	-4876
岷	-4877
昵	-4878
ά	-4879
僻	-4880
瞰	-4881
曳	-4882
ج	-4883
疟	-4884
忻	-4885
晔	-4886
榨	-4887
━	-4888
ق	-4889
鬣	-4890
정	-4891
瞩	-4892
禀	-4893
ł	-4894
劈	-4895
堑	-4896
迥	-4897
骧	-4898
睾	-4899
爹	-4900
耸	-4901
腱	-4902
舎	-4903
醍	-4904
経	-4905
滦	-4906
盏	-4907
広	-4908
瓒	-4909
鸫	-4910
酗	-4911
郷	-4912
呤	-4913
硒	-4914
篱	-4915
琨	-4916
璞	-4917
谤	-4918
疣	-4919
疱	-4920
辙	-4921
犍	-4922
裳	-4923
靳	-4924
颢	-4925
兮	-4926
晦	-4927
焘	-4928
玖	-4929
轧	-4930
稔	-4931
ա	-4932
髅	-4933
汛	-4934
蕈	-4935
阕	-4936
醐	-4937
鸳	-4938
暇	-4939
榔	-4940
笈	-4941
歪	-4942
郧	-4943
窜	-4944
叭	-4945
哮	-4946
芎	-4947
浔	-4948
琰	-4949
<	-4950
伺	-4951
지	-4952
炯	-4953
圩	-4954
聋	-4955
憎	-4956
渲	-4957
眺	-4958
荚	-4959
呀	-4960
燧	-4961
鸵	-4962
黯	-4963
်	-4964
蒿	-4965
冼	-4966
炔	-4967
莘	-4968
襟	-4969
č	-4970
ش	-4971
碉	-4972
姥	-4973
対	-4974
鸢	-4975
婕	-4976
璘	-4977
诣	-4978
叻	-4979
อ	-4980
乂	-4981
佃	-4982
廪	-4983
痉	-4984
锺	-4985
Ф	-4986
娩	-4987
원	-4988
濂	-4989
戛	-4990
睢	-4991
鼩	-4992
泮	-4993
孛	-4994
щ	-4995
惰	-4996
茫	-4997
蛤	-4998
र	-4999
ว	-5000
喃	-5001
嬉	-5002
愍	-5003
梶	-5004
鸯	-5005
凄	-5006
抨	-5007
祢	-5008
绊	-5009
谚	-5010
逅	-5011
铳	-5012
囱	-5013
邂	-5014
皿	-5015
亜	-5016
捏	-5017
澡	-5018
ɡ	-5019
巍	-5020
旌	-5021
鲑	-5022
宥	-5023
虱	-5024
ف	-5025
冗	-5026
嘌	-5027
耽	-5028
鲛	-5029
栎	-5030
葺	-5031
榉	-5032
漩	-5033
羯	-5034
缢	-5035
竜	-5036
鄱	-5037
簷	-5038
迺	-5039
骷	-5040
葆	-5041
З	-5042
氓	-5043
秤	-5044
邳	-5045
慷	-5046
熄	-5047
钳	-5048
甩	-5049
覃	-5050
玟	-5051
纮	-5052
郗	-5053
|	-5054
唾	-5055
懈	-5056
ю	-5057
筱	-5058
脐	-5059
跻	-5060
馀	-5061
亳	-5062
潢	-5063
诲	-5064
増	-5065
渍	-5066
焙	-5067
筷	-5068
迂	-5069
牒	-5070
绚	-5071
馥	-5072
ר	-5073
摹	-5074
隽	-5075
啮	-5076
歆	-5077
珑	-5078
痊	-5079
跆	-5080
锭	-5081
鳕	-5082
俏	-5083
勐	-5084
煦	-5085
祗	-5086
ה	-5087
忤	-5088
轭	-5089
镛	-5090
怯	-5091
炙	-5092
躬	-5093
変	-5094
廍	-5095
糜	-5096
姗	-5097
赃	-5098
営	-5099
幔	-5100
惇	-5101
咐	-5102
掺	-5103
峦	-5104
笹	-5105
颔	-5106
乖	-5107
咙	-5108
茧	-5109
𫚉	-5110
猕	-5111
昴	-5112
檄	-5113
遐	-5114
ć	-5115
尬	-5116
満	-5117
骞	-5118
ぱ	-5119
琢	-5120
癖	-5121
蛊	-5122
ぬ	-5123
钴	-5124
俣	-5125
揉	-5126
徘	-5127
灸	-5128
疤	-5129
腭	-5130
隈	-5131
崧	-5132
瓘	-5133
骥	-5134
鳖	-5135
鹟	-5136
づ	-5137
俺	-5138
哗	-5139
燊	-5140
梢	-5141
滁	-5142
骰	-5143
喵	-5144
悯	-5145
扼	-5146
镳	-5147
徊	-5148
闺	-5149
彧	-5150
珉	-5151
邾	-5152
铿	-5153
성	-5154
스	-5155
佗	-5156
羰	-5157
歹	-5158
俐	-5159
堇	-5160
怠	-5161
嬅	-5162
嬴	-5163
杲	-5164
э	-5165
嘧	-5166
讥	-5167
鳅	-5168
ē	-5169
琏	-5170
痰	-5171
勖	-5172
咯	-5173
埕	-5174
挨	-5175
橱	-5176
烫	-5177
沔	-5178
繇	-5179
込	-5180
한	-5181
榛	-5182
渎	-5183
烁	-5184
迩	-5185
凪	-5186
叩	-5187
ư	-5188
勺	-5189
岘	-5190
钺	-5191
鲹	-5192
鹘	-5193
수	-5194
ส	-5195
秧	-5196
㑩	-5197
樋	-5198
嗽	-5199
嚼	-5200
衅	-5201
尴	-5202
弛	-5203
蜻	-5204
赟	-5205
ล	-5206
狡	-5207
猬	-5208
觊	-5209
阡	-5210
収	-5211
珮	-5212
砺	-5213
蝗	-5214
인	-5215
喆	-5216
圻	-5217
恃	-5218
獭	-5219
蜍	-5220
钗	-5221
阉	-5222
ё	-5223
𫖮	-5224
钨	-5225
영	-5226
邬	-5227
霓	-5228
筏	-5229
讫	-5230
転	-5231
郴	-5232
æ	-5233
↔	-5234
孽	-5235
锄	-5236
呜	-5237
忱	-5238
晞	-5239
柘	-5240
楣	-5241
颓	-5242
Э	-5243
幂	-5244
揖	-5245
萘	-5246
髻	-5247
絵	-5248
ヌ	-5249
驭	-5250
熬	-5251
祎	-5252
邠	-5253
寥	-5254
虢	-5255
ヘ	-5256
吩	-5257
睑	-5258
蟠	-5259
続	-5260
匮	-5261
扒	-5262
溅	-5263
娑	-5264
洱	-5265
碓	-5266
骇	-5267
垅	-5268
辄	-5269
기	-5270
ท	-5271
藓	-5272
锜	-5273
捻	-5274
桁	-5275
橇	-5276
刈	-5277
奂	-5278
惶	-5279
瓢	-5280
蜓	-5281
ز	-5282
啰	-5283
啼	-5284
慑	-5285
琬	-5286
ş	-5287
毡	-5288
蕲	-5289
蹲	-5290
睽	-5291
瞎	-5292
蜕	-5293
蚤	-5294
饬	-5295
鬃	-5296
殁	-5297
糠	-5298
鹳	-5299
Α	-5300
剣	-5301
澧	-5302
遴	-5303
霰	-5304
Σ	-5305
瞭	-5306
钡	-5307
배	-5308
坳	-5309
売	-5310
涕	-5311
窒	-5312
缕	-5313
蠡	-5314
鲱	-5315
匕	-5316
惕	-5317
พ	-5318
嗓	-5319
孪	-5320
狒	-5321
钚	-5322
撇	-5323
Π	-5324
婶	-5325
悪	-5326
箔	-5327
牦	-5328
珙	-5329
薫	-5330
鳐	-5331
å	-5332
噜	-5333
ή	-5334
ك	-5335
叟	-5336
呐	-5337
骡	-5338
아	-5339
珈	-5340
珲	-5341
粱	-5342
鹕	-5343
疚	-5344
碾	-5345
嵯	-5346
螳	-5347
茸	-5348
국	-5349
亘	-5350
碁	-5351
诽	-5352
ל	-5353
栩	-5354
绀	-5355
羹	-5356
ぞ	-5357
殇	-5358
済	-5359
蛹	-5360
谧	-5361
ś	-5362
莿	-5363
Ч	-5364
懦	-5365
掾	-5366
화	-5367
焯	-5368
疝	-5369
赘	-5370
鄢	-5371
箫	-5372
έ	-5373
嫦	-5374
屎	-5375
晁	-5376
眩	-5377
绽	-5378
鹬	-5379
Е	-5380
倘	-5381
憧	-5382
掸	-5383
鎗	-5384
饺	-5385
주	-5386
俑	-5387
勗	-5388
憬	-5389
猝	-5390
玑	-5391
诘	-5392
颞	-5393
鲶	-5394
榎	-5395
澹	-5396
菠	-5397
郤	-5398
ต	-5399
珣	-5400
睁	-5401
碌	-5402
蝮	-5403
婪	-5404
槻	-5405
烬	-5406
辎	-5407
昀	-5408
戳	-5409
炖	-5410
锑	-5411
骈	-5412
骊	-5413
া	-5414
邛	-5415
镠	-5416
서	-5417
勲	-5418
峠	-5419
屁	-5420
崴	-5421
盂	-5422
悌	-5423
稲	-5424
蒴	-5425
ぽ	-5426
痹	-5427
踊	-5428
髦	-5429
신	-5430
呵	-5431
嫣	-5432
琊	-5433
ط	-5434
้	-5435
笺	-5436
顼	-5437
χ	-5438
亵	-5439
ี	-5440
妤	-5441
炅	-5442
ב	-5443
唔	-5444
腈	-5445
闫	-5446
阑	-5447
驮	-5448
珥	-5449
厩	-5450
恂	-5451
稼	-5452
钼	-5453
拣	-5454
驷	-5455
罔	-5456
荖	-5457
鹀	-5458
ゾ	-5459
恽	-5460
谌	-5461
噩	-5462
砦	-5463
呗	-5464
峤	-5465
滘	-5466
珏	-5467
痺	-5468
阯	-5469
鲲	-5470
砥	-5471
裨	-5472
ї	-5473
喧	-5474
洵	-5475
铰	-5476
φ	-5477
俟	-5478
睫	-5479
胭	-5480
ă	-5481
א	-5482
拮	-5483
蒨	-5484
铢	-5485
ุ	-5486
坻	-5487
権	-5488
瑭	-5489
痘	-5490
窘	-5491
부	-5492
仮	-5493
고	-5494
Х	-5495
抉	-5496
柩	-5497
榊	-5498
漪	-5499
诩	-5500
厮	-5501
菏	-5502
்	-5503
涣	-5504
阆	-5505
่	-5506
榭	-5507
薮	-5508
谿	-5509
מ	-5510
牍	-5511
枉	-5512
碇	-5513
가	-5514
ɲ	-5515
嚣	-5516
镕	-5517
ห	-5518
氙	-5519
硖	-5520
踞	-5521
佼	-5522
哔	-5523
磋	-5524
邈	-5525
円	-5526
岌	-5527
峒	-5528
漯	-5529
紊	-5530
郓	-5531
酌	-5532
霏	-5533
鲉	-5534
俪	-5535
卅	-5536
唆	-5537
捜	-5538
栢	-5539
烙	-5540
熵	-5541
阗	-5542
장	-5543
矗	-5544
羔	-5545
Κ	-5546
垢	-5547
夯	-5548
惮	-5549
濡	-5550
艏	-5551
螃	-5552
铯	-5553
ý	-5554
塭	-5555
茗	-5556
蚓	-5557
郦	-5558
扉	-5559
攘	-5560
谗	-5561
酐	-5562
鹗	-5563
鼐	-5564
ת	-5565
図	-5566
榷	-5567
î	-5568
珩	-5569
न	-5570
妞	-5571
崂	-5572
ύ	-5573
锆	-5574
도	-5575
산	-5576
惫	-5577
挞	-5578
觎	-5579
시	-5580
螨	-5581
្	-5582
缨	-5583
蒯	-5584
辇	-5585
骅	-5586
龈	-5587
暧	-5588
氐	-5589
箴	-5590
胛	-5591
铮	-5592
ð	-5593
ש	-5594
म	-5595
玠	-5596
痢	-5597
蔻	-5598
観	-5599
頼	-5600
佤	-5601
嶷	-5602
盯	-5603
綦	-5604
鞅	-5605
漓	-5606
皎	-5607
薙	-5608
辫	-5609
闘	-5610
구	-5611
嵇	-5612
楯	-5613
漱	-5614
麋	-5615
⁄	-5616
侑	-5617
喹	-5618
嵴	-5619
涝	-5620
학	-5621
𬀩	-5622
ờ	-5623
橹	-5624
谔	-5625
锢	-5626
ด	-5627
蚝	-5628
邃	-5629
鬬	-5630
상	-5631
ն	-5632
効	-5633
呋	-5634
苌	-5635
Đ	-5636
刍	-5637
攒	-5638
泚	-5639
璨	-5640
菈	-5641
豺	-5642
轸	-5643
疵	-5644
ž	-5645
汜	-5646
瑯	-5647
磘	-5648
镌	-5649
俚	-5650
榻	-5651
ぜ	-5652
膦	-5653
醴	-5654
隷	-5655
霁	-5656
鼹	-5657
จ	-5658
ช	-5659
燎	-5660
甾	-5661
蜈	-5662
鲇	-5663
勅	-5664
翩	-5665
일	-5666
瑁	-5667
◇	-5668
愫	-5669
澍	-5670
矾	-5671
豌	-5672
鹑	-5673
ะ	-5674
岖	-5675
庑	-5676
涸	-5677
박	-5678
^	-5679
Δ	-5680
珞	-5681
颙	-5682
أ	-5683
忿	-5684
獠	-5685
醮	-5686
镭	-5687
㭴	-5688
偈	-5689
洄	-5690
聿	-5691
鳟	-5692
민	-5693
Ö	-5694
์	-5695
敍	-5696
菓	-5697
蔼	-5698
교	-5699
佯	-5700
侥	-5701
帼	-5702
ò	-5703
َ	-5704
纣	-5705
蔺	-5706
ი	-5707
楹	-5708
⋯	-5709
涓	-5710
獾	-5711
僭	-5712
猾	-5713
瘠	-5714
ि	-5715
佰	-5716
蹦	-5717
塩	-5718
珐	-5719
苫	-5720
逞	-5721
자	-5722
ù	-5723
ɪ	-5724
柊	-5725
瘀	-5726
靛	-5727
마	-5728
연	-5729
ု	-5730
瑗	-5731
蛎	-5732
険	-5733
진	-5734
ა	-5735
栄	-5736
睪	-5737
娣	-5738
玥	-5739
舫	-5740
獣	-5741
韭	-5742
窍	-5743
読	-5744
钯	-5745
경	-5746
褂	-5747
褪	-5748
阖	-5749
乗	-5750
盱	-5751
藜	-5752
钜	-5753
Ш	-5754
匐	-5755
帚	-5756
杓	-5757
漾	-5758
惭	-5759
桀	-5760
ʔ	-5761
缤	-5762
舺	-5763
蚣	-5764
铣	-5765
ï	-5766
क	-5767
璠	-5768
호	-5769
纾	-5770
芍	-5771
宍	-5772
憨	-5773
掏	-5774
猗	-5775
脍	-5776
त	-5777
រ	-5778
岙	-5779
槎	-5780
艋	-5781
鱿	-5782
佺	-5783
帷	-5784
荞	-5785
匍	-5786
鲭	-5787
라	-5788
œ	-5789
哄	-5790
睇	-5791
繙	-5792
ぷ	-5793
屹	-5794
氷	-5795
淦	-5796
炊	-5797
玘	-5798
绷	-5799
馗	-5800
ě	-5801
彊	-5802
楫	-5803
翱	-5804
阈	-5805
嘘	-5806
茴	-5807
하	-5808
坯	-5809
昉	-5810
绾	-5811
罂	-5812
蟆	-5813
خ	-5814
婧	-5815
崽	-5816
疋	-5817
颧	-5818
현	-5819
Ε	-5820
吒	-5821
孖	-5822
孰	-5823
暠	-5824
毌	-5825
滝	-5826
谶	-5827
陟	-5828
髋	-5829
児	-5830
佶	-5831
傉	-5832
灞	-5833
赡	-5834
遽	-5835
簪	-5836
肄	-5837
蜢	-5838
赉	-5839
飒	-5840
ា	-5841
両	-5842
愔	-5843
郯	-5844
ค	-5845
筲	-5846
铍	-5847
锵	-5848
𬘭	-5849
נ	-5850
嵋	-5851
芈	-5852
藕	-5853
유	-5854
ì	-5855
မ	-5856
殓	-5857
涞	-5858
脲	-5859
蹼	-5860
雒	-5861
Μ	-5862
ص	-5863
翦	-5864
蝌	-5865
迳	-5866
锗	-5867
颛	-5868
전	-5869
ָ	-5870
ိ	-5871
း	-5872
♪	-5873
抜	-5874
淝	-5875
ζ	-5876
‐	-5877
缵	-5878
咄	-5879
娼	-5880
媲	-5881
猥	-5882
疽	-5883
蝾	-5884
恙	-5885
琚	-5886
苄	-5887
蛱	-5888
은	-5889
诙	-5890
선	-5891
検	-5892
碲	-5893
蚪	-5894
赓	-5895
镂	-5896
윤	-5897
ğ	-5898
ヶ	-5899
祟	-5900
蓼	-5901
蚵	-5902
赭	-5903
辂	-5904
郃	-5905
颉	-5906
Ω	-5907
澂	-5908
犸	-5909
眙	-5910
簸	-5911
鄜	-5912
다	-5913
û	-5914
स	-5915
咆	-5916
湮	-5917
纭	-5918
菀	-5919
鳝	-5920
문	-5921
Ц	-5922
埴	-5923
夙	-5924
斟	-5925
犊	-5926
璀	-5927
覧	-5928
𪸩	-5929
吝	-5930
哌	-5931
垛	-5932
娲	-5933
椋	-5934
毬	-5935
氪	-5936
腮	-5937
菟	-5938
葩	-5939
谙	-5940
蹇	-5941
나	-5942
Š	-5943
嵊	-5944
桡	-5945
畹	-5946
鄚	-5947
\	-5948
拚	-5949
辘	-5950
隗	-5951
ṭ	-5952
滂	-5953
罄	-5954
Á	-5955
ी	-5956
涎	-5957
郜	-5958
ɕ	-5959
ṣ	-5960
湟	-5961
牝	-5962
镗	-5963
조	-5964
庁	-5965
痔	-5966
芊	-5967
隣	-5968
霊	-5969
공	-5970
Å	-5971
ъ	-5972
ד	-5973
บ	-5974
ぴ	-5975
怂	-5976
椁	-5977
驒	-5978
嘶	-5979
朐	-5980
槙	-5981
煲	-5982
砵	-5983
琇	-5984
秆	-5985
酝	-5986
ल	-5987
亀	-5988
噻	-5989
旃	-5990
晗	-5991
枷	-5992
飨	-5993
儋	-5994
斉	-5995
보	-5996
ո	-5997
薬	-5998
鲟	-5999
ּ	-6000
恣	-6001
疸	-6002
蔴	-6003
ក	-6004
妫	-6005
恿	-6006
诋	-6007
镉	-6008
┃	-6009
旸	-6010
杷	-6011
蛭	-6012
袒	-6013
Č	-6014
Ν	-6015
鹮	-6016
ń	-6017
惺	-6018
강	-6019
로	-6020
­	-6021
恸	-6022
荨	-6023
贽	-6024
啬	-6025
壑	-6026
搓	-6027
拭	-6028
箍	-6029
萸	-6030
诟	-6031
천	-6032
ր	-6033
汨	-6034
淬	-6035
肼	-6036
荳	-6037
鲽	-6038
鳢	-6039
鸲	-6040
淅	-6041
瞪	-6042
胧	-6043
䜣	-6044
僮	-6045
螫	-6046
钍	-6047
鸬	-6048
奭	-6049
扛	-6050
瓌	-6051
轲	-6052
闼	-6053
麸	-6054
咱	-6055
斎	-6056
锶	-6057
미	-6058
貘	-6059
逛	-6060
铋	-6061
鼯	-6062
墉	-6063
醌	-6064
ک	-6065
刨	-6066
囤	-6067
耒	-6068
남	-6069
ゥ	-6070
埭	-6071
帰	-6072
恍	-6073
惣	-6074
洺	-6075
钤	-6076
馒	-6077
黍	-6078
摒	-6079
笏	-6080
縁	-6081
缑	-6082
缬	-6083
ṇ	-6084
啉	-6085
栱	-6086
淖	-6087
畲	-6088
矜	-6089
鹚	-6090
𫚥	-6091
ệ	-6092
嘟	-6093
蛰	-6094
蟑	-6095
व	-6096
冏	-6097
垭	-6098
応	-6099
洸	-6100
潦	-6101
诂	-6102
钒	-6103
铛	-6104
ာ	-6105
勰	-6106
岫	-6107
椽	-6108
缭	-6109
蹊	-6110
铆	-6111
隠	-6112
饕	-6113
髂	-6114
苋	-6115
ξ	-6116
Ж	-6117
冴	-6118
沭	-6119
鲳	-6120
鲵	-6121
ស	-6122
悫	-6123
膑	-6124
재	-6125
£	-6126
Ι	-6127
舂	-6128
鹄	-6129
오	-6130
제	-6131
®	-6132
镒	-6133
駄	-6134
魇	-6135
Ю	-6136
Я	-6137
ј	-6138
哒	-6139
砀	-6140
纫	-6141
訳	-6142
邙	-6143
闱	-6144
闳	-6145
ע	-6146
亟	-6147
剽	-6148
寔	-6149
桉	-6150
趴	-6151
ְ	-6152
प	-6153
晩	-6154
稗	-6155
耙	-6156
陉	-6157
験	-6158
囗	-6159
揣	-6160
淼	-6161
痞	-6162
蚯	-6163
阚	-6164
্	-6165
ぃ	-6166
丶	-6167
嬷	-6168
槺	-6169
汹	-6170
珅	-6171
𫚭	-6172
ˋ	-6173
ु	-6174
瑀	-6175
虬	-6176
雫	-6177
鲫	-6178
鹩	-6179
ป	-6180
ས	-6181
幺	-6182
辊	-6183
隰	-6184
雑	-6185
髪	-6186
玷	-6187
砧	-6188
荪	-6189
蚜	-6190
跷	-6191
鲣	-6192
麿	-6193
င	-6194
戾	-6195
渺	-6196
疃	-6197
소	-6198
𫛭	-6199
य	-6200
亶	-6201
佞	-6202
啃	-6203
嗪	-6204
徕	-6205
甑	-6206
蛉	-6207
谑	-6208
铐	-6209
द	-6210
栞	-6211
涙	-6212
양	-6213
呪	-6214
掣	-6215
罡	-6216
鄯	-6217
𪟝	-6218
単	-6219
怛	-6220
晾	-6221
枇	-6222
犒	-6223
玳	-6224
粽	-6225
菖	-6226
讣	-6227
陲	-6228
冨	-6229
堃	-6230
晷	-6231
粧	-6232
継	-6233
阏	-6234
년	-6235
역	-6236
ן	-6237
倻	-6238
傕	-6239
刎	-6240
喱	-6241
榫	-6242
胯	-6243
酆	-6244
안	-6245
န	-6246
刽	-6247
嬢	-6248
트	-6249
滢	-6250
猖	-6251
珽	-6252
瑱	-6253
蹴	-6254
郅	-6255
鹞	-6256
ɐ	-6257
Ο	-6258
嫖	-6259
徭	-6260
祛	-6261
葭	-6262
覚	-6263
骐	-6264
Θ	-6265
র	-6266
曷	-6267
曽	-6268
爰	-6269
翳	-6270
钿	-6271
희	-6272
ศ	-6273
ေ	-6274
圜	-6275
悸	-6276
璩	-6277
粿	-6278
艉	-6279
讧	-6280
해	-6281
ώ	-6282
伉	-6283
拗	-6284
焗	-6285
鎏	-6286
髑	-6287
俵	-6288
昺	-6289
秣	-6290
縻	-6291
缄	-6292
肮	-6293
ạ	-6294
倬	-6295
弾	-6296
燿	-6297
觞	-6298
蹬	-6299
遶	-6300
ㄧ	-6301
茑	-6302
菘	-6303
蜚	-6304
餮	-6305
鲗	-6306
ė	-6307
碶	-6308
膊	-6309
藁	-6310
͡	-6311
寐	-6312
淌	-6313
珰	-6314
瑊	-6315
羿	-6316
颏	-6317
어	-6318
▲	-6319
悝	-6320
挿	-6321
柝	-6322
蹂	-6323
鹪	-6324
여	-6325
종	-6326
ř	-6327
ִ	-6328
แ	-6329
戬	-6330
蟀	-6331
袤	-6332
镞	-6333
骘	-6334
최	-6335
俶	-6336
嚎	-6337
廆	-6338
氩	-6339
稹	-6340
萜	-6341
蚬	-6342
蟋	-6343
ṃ	-6344
渕	-6345
筊	-6346
蓑	-6347
ㄨ	-6348
伡	-6349
宓	-6350
舔	-6351
苕	-6352
苴	-6353
荏	-6354
鞮	-6355
க	-6356
乩	-6357
怿	-6358
枞	-6359
澶	-6360
褓	-6361
Λ	-6362
仞	-6363
棂	-6364
腑	-6365
豉	-6366
踵	-6367
骶	-6368
ʂ	-6369
ไ	-6370
囍	-6371
嵘	-6372
帑	-6373
苾	-6374
啜	-6375
従	-6376
樾	-6377
ի	-6378
凊	-6379
徇	-6380
碛	-6381
蚩	-6382
诒	-6383
豸	-6384
跛	-6385
雹	-6386
ɣ	-6387
қ	-6388
က	-6389
朦	-6390
枳	-6391
泞	-6392
箸	-6393
罟	-6394
鵙	-6395
鹋	-6396
ү	-6397
喔	-6398
殃	-6399
苣	-6400
赜	-6401
े	-6402
坨	-6403
墀	-6404
弭	-6405
梿	-6406
铈	-6407
镫	-6408
髯	-6409
Î	-6410
ɾ	-6411
ḥ	-6412
咁	-6413
嗟	-6414
泠	-6415
穰	-6416
笆	-6417
耘	-6418
讪	-6419
镯	-6420
雎	-6421
韫	-6422
鸨	-6423
송	-6424
태	-6425
𬤇	-6426
ོ	-6427
ុ	-6428
嘏	-6429
姒	-6430
燄	-6431
蓁	-6432
虻	-6433
麂	-6434
광	-6435
비	-6436
Β	-6437
ე	-6438
氘	-6439
湜	-6440
眨	-6441
莅	-6442
蜷	-6443
铫	-6444
ւ	-6445
♥	-6446
仝	-6447
棻	-6448
砜	-6449
簋	-6450
铱	-6451
骢	-6452
嚏	-6453
戯	-6454
杼	-6455
渋	-6456
瘴	-6457
蚺	-6458
躏	-6459
遹	-6460
铟	-6461
靺	-6462
울	-6463
ி	-6464
㹴	-6465
哦	-6466
喰	-6467
圹	-6468
挹	-6469
篙	-6470
籁	-6471
蘅	-6472
镝	-6473
鹎	-6474
İ	-6475
掐	-6476
敝	-6477
棨	-6478
瘙	-6479
袂	-6480
詧	-6481
诤	-6482
霭	-6483
鹂	-6484
ธ	-6485
䶮	-6486
咫	-6487
峥	-6488
惋	-6489
捶	-6490
浐	-6491
熠	-6492
瓠	-6493
畈	-6494
萦	-6495
钋	-6496
鞨	-6497
鸪	-6498
鹧	-6499
婵	-6500
痣	-6501
藐	-6502
镓	-6503
군	-6504
랑	-6505
כ	-6506
ِ	-6507
幪	-6508
褫	-6509
阂	-6510
霾	-6511
黟	-6512
드	-6513
ח	-6514
坵	-6515
撷	-6516
槲	-6517
煊	-6518
猞	-6519
筐	-6520
臆	-6521
谄	-6522
관	-6523
병	-6524
ե	-6525
ַ	-6526
ག	-6527
ြ	-6528
╱	-6529
卍	-6530
垓	-6531
壊	-6532
帯	-6533
沩	-6534
洹	-6535
狈	-6536
猁	-6537
粕	-6538
胍	-6539
脯	-6540
膈	-6541
苎	-6542
荘	-6543
袴	-6544
裟	-6545
铌	-6546
đ	-6547
བ	-6548
暄	-6549
濯	-6550
炤	-6551
窿	-6552
俦	-6553
兢	-6554
処	-6555
懊	-6556
拴	-6557
沓	-6558
豳	-6559
鄄	-6560
铧	-6561
锷	-6562
鳉	-6563
鸸	-6564
백	-6565
伕	-6566
梆	-6567
熨	-6568
璁	-6569
瞧	-6570
聡	-6571
莼	-6572
葳	-6573
蕤	-6574
袈	-6575
迤	-6576
邽	-6577
镧	-6578
鬓	-6579
鹌	-6580
Ś	-6581
ג	-6582
າ	-6583
რ	-6584
匏	-6585
喋	-6586
楂	-6587
殒	-6588
烩	-6589
焜	-6590
皙	-6591
舐	-6592
鏖	-6593
鮨	-6594
鲎	-6595
홍	-6596
회	-6597
咝	-6598
巯	-6599
楢	-6600
湃	-6601
眈	-6602
缜	-6603
鑛	-6604
¥	-6605
ʻ	-6606
ງ	-6607
抡	-6608
搐	-6609
柞	-6610
瘩	-6611
赝	-6612
颎	-6613
ं	-6614
ད	-6615
တ	-6616
冇	-6617
哼	-6618
嘅	-6619
嘢	-6620
姝	-6621
碚	-6622
芗	-6623
석	-6624
Ü	-6625
ם	-6626
䓬	-6627
凫	-6628
嗝	-6629
孳	-6630
浬	-6631
疙	-6632
碣	-6633
袱	-6634
غ	-6635
ى	-6636
ْ	-6637
俎	-6638
搪	-6639
槊	-6640
槿	-6641
獗	-6642
窓	-6643
螭	-6644
褥	-6645
轫	-6646
闿	-6647
髙	-6648
세	-6649
운	-6650
↑	-6651
吲	-6652
濉	-6653
笞	-6654
裒	-6655
锹	-6656
阊	-6657
에	-6658
‿	-6659
侪	-6660
僳	-6661
哚	-6662
唁	-6663
蚋	-6664
蝽	-6665
铄	-6666
鸱	-6667
鼱	-6668
侂	-6669
坌	-6670
峄	-6671
嶂	-6672
玹	-6673
脷	-6674
趸	-6675
방	-6676
Ρ	-6677
ћ	-6678
彷	-6679
蜃	-6680
는	-6681
յ	-6682
ग	-6683
ရ	-6684
♭	-6685
嘈	-6686
稙	-6687
蘸	-6688
蛀	-6689
覇	-6690
蹶	-6691
驩	-6692
髭	-6693
龢	-6694
용	-6695
ज	-6696
ộ	-6697
△	-6698
椴	-6699
瘿	-6700
皐	-6701
翀	-6702
Υ	-6703
پ	-6704
⇒	-6705
仡	-6706
噌	-6707
埙	-6708
捒	-6709
搔	-6710
沣	-6711
濞	-6712
犷	-6713
邰	-6714
飚	-6715
면	-6716
ณ	-6717
โ	-6718
傈	-6719
嗔	-6720
愕	-6721
縄	-6722
绦	-6723
诜	-6724
郏	-6725
駆	-6726
骜	-6727
Τ	-6728
פ	-6729
寳	-6730
尙	-6731
屐	-6732
爨	-6733
禛	-6734
趺	-6735
鲂	-6736
철	-6737
ק	-6738
Ἀ	-6739
怙	-6740
悰	-6741
拽	-6742
毂	-6743
汊	-6744
箓	-6745
胳	-6746
郫	-6747
鬟	-6748
`	-6749
Ç	-6750
Γ	-6751
埸	-6752
嵙	-6753
扦	-6754
捩	-6755
橿	-6756
溟	-6757
菰	-6758
酣	-6759
鋆	-6760
钕	-6761
鯓	-6762
鸻	-6763
ʊ	-6764
働	-6765
徴	-6766
茔	-6767
蜱	-6768
계	-6769
咭	-6770
囧	-6771
檩	-6772
澪	-6773
缗	-6774
차	-6775
ს	-6776
坷	-6777
斫	-6778
檗	-6779
溏	-6780
疥	-6781
礽	-6782
莳	-6783
鬲	-6784
명	-6785
왕	-6786
𫖳	-6787
€	-6788
偲	-6789
啾	-6790
塱	-6791
崆	-6792
擘	-6793
焖	-6794
秭	-6795
缰	-6796
誊	-6797
谠	-6798
锇	-6799
그	-6800
내	-6801
圉	-6802
鄠	-6803
승	-6804
터	-6805
Φ	-6806
暦	-6807
焱	-6808
牯	-6809
芃	-6810
茁	-6811
Χ	-6812
ס	-6813
ི	-6814
ង	-6815
渉	-6816
痈	-6817
皝	-6818
芾	-6819
霈	-6820
ơ	-6821
ນ	-6822
ອ	-6823
垠	-6824
屉	-6825
鞣	-6826
إ	-6827
仃	-6828
唢	-6829
噗	-6830
弢	-6831
暁	-6832
煨	-6833
翕	-6834
阄	-6835
І	-6836
ச	-6837
捺	-6838
枸	-6839
泯	-6840
痲	-6841
癞	-6842
磬	-6843
磴	-6844
蝓	-6845
讦	-6846
饯	-6847
임	-6848
준	-6849
哙	-6850
壅	-6851
惘	-6852
扪	-6853
旼	-6854
纨	-6855
钇	-6856
铊	-6857
锴	-6858
중	-6859
청	-6860
ị	-6861
廻	-6862
惚	-6863
煖	-6864
篝	-6865
蛞	-6866
鏊	-6867
钽	-6868
ө	-6869
ি	-6870
த	-6871
ர	-6872
嗨	-6873
廙	-6874
徨	-6875
怦	-6876
拏	-6877
湫	-6878
芡	-6879
蒽	-6880
蛸	-6881
鳔	-6882
순	-6883
乜	-6884
倣	-6885
儆	-6886
圏	-6887
埒	-6888
姶	-6889
崃	-6890
痂	-6891
瘰	-6892
糅	-6893
谘	-6894
단	-6895
õ	-6896
Ş	-6897
দ	-6898
ར	-6899
ន	-6900
∶	-6901
吱	-6902
塬	-6903
竑	-6904
舛	-6905
裱	-6906
黼	-6907
무	-6908
ব	-6909
姣	-6910
汧	-6911
淸	-6912
渑	-6913
窠	-6914
耨	-6915
荠	-6916
谡	-6917
迢	-6918
鹱	-6919
ę	-6920
ә	-6921
ู	-6922
∞	-6923
倶	-6924
枹	-6925
栀	-6926
溱	-6927
焼	-6928
眸	-6929
瞋	-6930
罘	-6931
耜	-6932
̯	-6933
ぁ	-6934
呦	-6935
咋	-6936
柁	-6937
楸	-6938
獒	-6939
笕	-6940
绂	-6941
跸	-6942
郾	-6943
鉏	-6944
骋	-6945
만	-6946
ئ	-6947
ন	-6948
ပ	-6949
ヲ	-6950
咩	-6951
嗡	-6952
囿	-6953
圮	-6954
抟	-6955
湣	-6956
箐	-6957
ह	-6958
ლ	-6959
ぺ	-6960
揪	-6961
睺	-6962
鲡	-6963
요	-6964
স	-6965
ུ	-6966
∧	-6967
倔	-6968
唛	-6969
帙	-6970
琯	-6971
瑷	-6972
磕	-6973
箧	-6974
罽	-6975
苅	-6976
茯	-6977
邗	-6978
飏	-6979
과	-6980
哟	-6981
嘿	-6982
尪	-6983
岀	-6984
戆	-6985
昐	-6986
楙	-6987
沆	-6988
泺	-6989
秸	-6990
窈	-6991
赀	-6992
軽	-6993
邴	-6994
魮	-6995
Ž	-6996
ّ	-6997
ข	-6998
ṛ	-6999
ễ	-7000
彅	-7001
戢	-7002
枱	-7003
炁	-7004
硐	-7005
繖	-7006
肟	-7007
衿	-7008
谳	-7009
逖	-7010
郿	-7011
鲢	-7012
ट	-7013
श	-7014
ল	-7015
ម	-7016
∨	-7017
叁	-7018
咚	-7019
尕	-7020
昪	-7021
汭	-7022
沄	-7023
琎	-7024
筮	-7025
蘧	-7026
蚶	-7027
蠹	-7028
酢	-7029
금	-7030
𫷷	-7031
𬭎	-7032
ო	-7033
䃅	-7034
伋	-7035
呛	-7036
嵬	-7037
炕	-7038
篦	-7039
籐	-7040
臾	-7041
豨	-7042
˧	-7043
ो	-7044
ம	-7045
ḍ	-7046
廨	-7047
滏	-7048
磔	-7049
逋	-7050
삼	-7051
ő	-7052
ǎ	-7053
ɨ	-7054
ត	-7055
値	-7056
剁	-7057
潴	-7058
焓	-7059
狎	-7060
黝	-7061
니	-7062
𫍯	-7063
կ	-7064
ா	-7065
偓	-7066
獐	-7067
砻	-7068
祔	-7069
환	-7070
ˊ	-7071
ء	-7072
ぇ	-7073
㐷	-7074
伫	-7075
匂	-7076
晸	-7077
浃	-7078
浍	-7079
珺	-7080
祆	-7081
祏	-7082
羗	-7083
莨	-7084
蚱	-7085
蜊	-7086
衹	-7087
觚	-7088
讃	-7089
铤	-7090
̍	-7091
့	-7092
咔	-7093
啖	-7094
埚	-7095
惔	-7096
拈	-7097
揹	-7098
洧	-7099
滹	-7100
犨	-7101
竦	-7102
蛔	-7103
螟	-7104
逯	-7105
𨱇	-7106
ֶ	-7107
ُ	-7108
འ	-7109
䱵	-7110
傩	-7111
呱	-7112
嚈	-7113
岢	-7114
氚	-7115
诧	-7116
铼	-7117
锽	-7118
鯙	-7119
𫊸	-7120
𫖯	-7121
劵	-7122
嗤	-7123
攫	-7124
玢	-7125
瘪	-7126
笳	-7127
缥	-7128
葶	-7129
Ä	-7130
ֹ	-7131
ז	-7132
ื	-7133
◎	-7134
唬	-7135
廸	-7136
暾	-7137
洎	-7138
痤	-7139
瞥	-7140
酞	-7141
颕	-7142
饴	-7143
당	-7144
식	-7145
ম	-7146
ན	-7147
吮	-7148
噱	-7149
囲	-7150
窰	-7151
鬻	-7152
레	-7153
Ø	-7154
ʿ	-7155
█	-7156
倧	-7157
偁	-7158
呻	-7159
粳	-7160
罴	-7161
薏	-7162
袄	-7163
谀	-7164
鄣	-7165
鬘	-7166
𬬮	-7167
Η	-7168
گ	-7169
ு	-7170
↓	-7171
≥	-7172
倜	-7173
労	-7174
唵	-7175
囝	-7176
垚	-7177
媾	-7178
崮	-7179
怅	-7180
憍	-7181
捅	-7182
纡	-7183
臬	-7184
荦	-7185
镨	-7186
𫫇	-7187
‡	-7188
吖	-7189
哎	-7190
啪	-7191
夤	-7192
悛	-7193
掲	-7194
揍	-7195
曩	-7196
楝	-7197
犂	-7198
狨	-7199
瘁	-7200
绌	-7201
莴	-7202
蛆	-7203
锟	-7204
馔	-7205
鳀	-7206
복	-7207
창	-7208
황	-7209
Ó	-7210
ą	-7211
ภ	-7212
悭	-7213
愆	-7214
犰	-7215
狳	-7216
玆	-7217
甪	-7218
畤	-7219
郇	-7220
锕	-7221
야	-7222
_	-7223
ญ	-7224
ษ	-7225
ả	-7226
剡	-7227
垸	-7228
栻	-7229
狛	-7230
狞	-7231
畋	-7232
腴	-7233
蜇	-7234
谞	-7235
赍	-7236
镬	-7237
거	-7238
덕	-7239
을	-7240
행	-7241
§	-7242
ມ	-7243
ប	-7244
傥	-7245
咧	-7246
埜	-7247
嬛	-7248
巿	-7249
恚	-7250
淯	-7251
煽	-7252
燐	-7253
篁	-7254
翥	-7255
聃	-7256
裆	-7257
谲	-7258
逑	-7259
闩	-7260
顕	-7261
颀	-7262
모	-7263
훈	-7264
ұ	-7265
ט	-7266
ํ	-7267
ầ	-7268
≤	-7269
俛	-7270
楮	-7271
爻	-7272
芫	-7273
赧	-7274
평	-7275
𤩽	-7276
𬭩	-7277
ʼ	-7278
ˌ	-7279
ث	-7280
ض	-7281
ক	-7282
♡	-7283
䌷	-7284
佾	-7285
坩	-7286
揄	-7287
榖	-7288
畷	-7289
荩	-7290
遛	-7291
馍	-7292
예	-7293
파	-7294
ɯ	-7295
̇	-7296
ப	-7297
མ	-7298
ခ	-7299
䓨	-7300
仟	-7301
傚	-7302
嬿	-7303
扆	-7304
烺	-7305
篾	-7306
粑	-7307
蘂	-7308
豢	-7309
铷	-7310
髁	-7311
鲆	-7312
鳚	-7313
래	-7314
바	-7315
포	-7316
﨑	-7317
埈	-7318
妪	-7319
扱	-7320
毖	-7321
瀞	-7322
砮	-7323
艶	-7324
遨	-7325
酔	-7326
騒	-7327
형	-7328
˩	-7329
Қ	-7330
ս	-7331
آ	-7332
ང	-7333
သ	-7334
撬	-7335
獴	-7336
瘸	-7337
盩	-7338
缯	-7339
肜	-7340
脳	-7341
茌	-7342
茛	-7343
谩	-7344
迸	-7345
铕	-7346
铖	-7347
건	-7348
치	-7349
տ	-7350
ब	-7351
┣	-7352
䓕	-7353
塙	-7354
揶	-7355
杳	-7356
盥	-7357
羸	-7358
舣	-7359
蓨	-7360
馁	-7361
驺	-7362
鸰	-7363
후	-7364
ׁ	-7365
ᠠ	-7366
ế	-7367
匄	-7368
卬	-7369
埵	-7370
妣	-7371
巂	-7372
戋	-7373
戡	-7374
拧	-7375
撩	-7376
朶	-7377
浄	-7378
潾	-7379
犄	-7380
畯	-7381
皞	-7382
睬	-7383
碴	-7384
祓	-7385
笮	-7386
粄	-7387
糍	-7388
蒺	-7389
蠲	-7390
襁	-7391
酩	-7392
鲮	-7393
노	-7394
려	-7395
ż	-7396
ɥ	-7397
ہ	-7398
अ	-7399
জ	-7400
ເ	-7401
ậ	-7402
䴕	-7403
亹	-7404
厔	-7405
娓	-7406
嫚	-7407
欤	-7408
涮	-7409
烊	-7410
玙	-7411
荤	-7412
蓥	-7413
蚡	-7414
蹋	-7415
錬	-7416
齢	-7417
두	-7418
들	-7419
𫇭	-7420
𬩽	-7421
ে	-7422
ῦ	-7423
㧑	-7424
呉	-7425
懵	-7426
擀	-7427
檎	-7428
沤	-7429
滉	-7430
禑	-7431
窕	-7432
胂	-7433
褔	-7434
譲	-7435
骝	-7436
黻	-7437
봉	-7438
ལ	-7439
ེ	-7440
ယ	-7441
ố	-7442
佢	-7443
劄	-7444
徵	-7445
烜	-7446
畬	-7447
籓	-7448
苡	-7449
魍	-7450
𬶨	-7451
მ	-7452
唧	-7453
垟	-7454
壆	-7455
搀	-7456
氖	-7457
罍	-7458
翚	-7459
胝	-7460
薗	-7461
郕	-7462
铑	-7463
锏	-7464
锛	-7465
鱵	-7466
녀	-7467
위	-7468
ᠨ	-7469
ἀ	-7470
ヅ	-7471
僊	-7472
擧	-7473
槭	-7474
沚	-7475
牂	-7476
璆	-7477
缈	-7478
雩	-7479
黙	-7480
ψ	-7481
є	-7482
প	-7483
ྱ	-7484
ნ	-7485
უ	-7486
叨	-7487
圪	-7488
孑	-7489
掴	-7490
濊	-7491
熜	-7492
皑	-7493
眜	-7494
苜	-7495
踹	-7496
鞆	-7497
黠	-7498
림	-7499
ˇ	-7500
ـ	-7501
ष	-7502
ະ	-7503
ვ	-7504
ọ	-7505
„	-7506
‬	-7507
嘹	-7508
噢	-7509
嚷	-7510
坭	-7511
垡	-7512
壱	-7513
媞	-7514
幷	-7515
拝	-7516
梼	-7517
棹	-7518
瑢	-7519
遒	-7520
钌	-7521
霎	-7522
भ	-7523
য	-7524
ু	-7525
ட	-7526
ㄅ	-7527
俅	-7528
倌	-7529
倓	-7530
叼	-7531
叽	-7532
呷	-7533
唠	-7534
巌	-7535
庹	-7536
柒	-7537
溆	-7538
炘	-7539
煚	-7540
硏	-7541
箩	-7542
萣	-7543
鸩	-7544
씨	-7545
צ	-7546
ㄇ	-7547
吽	-7548
挙	-7549
斓	-7550
柽	-7551
棐	-7552
檨	-7553
欉	-7554
泫	-7555
畧	-7556
芩	-7557
锝	-7558
隹	-7559
鲼	-7560
鹨	-7561
개	-7562
숙	-7563
𪨶	-7564
𫗧	-7565
ș	-7566
च	-7567
仵	-7568
廃	-7569
悧	-7570
暌	-7571
璎	-7572
眭	-7573
禤	-7574
蓿	-7575
虓	-7576
螅	-7577
螽	-7578
赳	-7579
鲅	-7580
더	-7581
ғ	-7582
ী	-7583
䝙	-7584
佉	-7585
啧	-7586
媵	-7587
嶝	-7588
廵	-7589
柾	-7590
浠	-7591
煴	-7592
獬	-7593
砟	-7594
缟	-7595
臯	-7596
蓣	-7597
蚴	-7598
裈	-7599
謇	-7600
貊	-7601
魉	-7602
鳎	-7603
규	-7604
열	-7605
혜	-7606
ɤ	-7607
ျ	-7608
თ	-7609
◆	-7610
♯	-7611
勔	-7612
哏	-7613
喳	-7614
榧	-7615
樗	-7616
浈	-7617
渌	-7618
簗	-7619
缦	-7620
菑	-7621
蓇	-7622
袪	-7623
豕	-7624
郞	-7625
韪	-7626
魋	-7627
鹜	-7628
ǐ	-7629
ใ	-7630
လ	-7631
≈	-7632
啥	-7633
囓	-7634
潺	-7635
瘘	-7636
瞽	-7637
砭	-7638
砰	-7639
訇	-7640
鄘	-7641
颥	-7642
옥	-7643
타	-7644
𬶮	-7645
ɬ	-7646
˥	-7647
ီ	-7648
ិ	-7649
ῖ	-7650
啯	-7651
囡	-7652
戕	-7653
畀	-7654
砣	-7655
稃	-7656
绉	-7657
翮	-7658
聩	-7659
葖	-7660
蟥	-7661
铙	-7662
陜	-7663
권	-7664
애	-7665
크	-7666
ʕ	-7667
ֵ	-7668
ன	-7669
䴓	-7670
伷	-7671
倮	-7672
凃	-7673
劢	-7674
埂	-7675
寤	-7676
峁	-7677
揾	-7678
摈	-7679
昰	-7680
槇	-7681
櫈	-7682
瓖	-7683
赊	-7684
郛	-7685
醺	-7686
雠	-7687
髀	-7688
鬪	-7689
鲴	-7690
손	-7691
𫚔	-7692
Ζ	-7693
়	-7694
ວ	-7695
ề	-7696
ㄚ	-7697
垵	-7698
姵	-7699
搾	-7700
晧	-7701
杌	-7702
玚	-7703
舢	-7704
觑	-7705
讴	-7706
遘	-7707
간	-7708
혁	-7709
ʨ	-7710
ី	-7711
佻	-7712
媪	-7713
岿	-7714
炆	-7715
燹	-7716
玕	-7717
痿	-7718
盅	-7719
藿	-7720
诔	-7721
賛	-7722
韮	-7723
馑	-7724
鳏	-7725
鼷	-7726
감	-7727
러	-7728
𬺈	-7729
Í	-7730
්	-7731
ំ	-7732
ồ	-7733
┓	-7734
娆	-7735
歯	-7736
濶	-7737
琤	-7738
璲	-7739
瞌	-7740
箨	-7741
篑	-7742
胴	-7743
腧	-7744
腩	-7745
葑	-7746
藨	-7747
诶	-7748
邉	-7749
酊	-7750
醂	-7751
髹	-7752
鳯	-7753
鸷	-7754
鹡	-7755
와	-7756
𫍽	-7757
ў	-7758
ல	-7759
ື	-7760
စ	-7761
ῶ	-7762
㓥	-7763
仏	-7764
厓	-7765
叅	-7766
垍	-7767
奨	-7768
彘	-7769
桷	-7770
猊	-7771
甙	-7772
痨	-7773
窣	-7774
辔	-7775
邡	-7776
镦	-7777
달	-7778
북	-7779
업	-7780
ũ	-7781
ų	-7782
մ	-7783
ण	-7784
ා	-7785
丼	-7786
喽	-7787
噏	-7788
塽	-7789
尅	-7790
幄	-7791
掟	-7792
瘢	-7793
砒	-7794
篓	-7795
羕	-7796
貤	-7797
趵	-7798
钐	-7799
镊	-7800
근	-7801
피	-7802
𫝭	-7803
𬙂	-7804
ţ	-7805
ʾ	-7806
ू	-7807
ྲ	-7808
ွ	-7809
咗	-7810
巣	-7811
弐	-7812
挈	-7813
旄	-7814
栲	-7815
梃	-7816
浯	-7817
渟	-7818
澁	-7819
砬	-7820
礴	-7821
笥	-7822
纛	-7823
腆	-7824
衎	-7825
譔	-7826
跞	-7827
鄀	-7828
鄫	-7829
鲻	-7830
게	-7831
길	-7832
독	-7833
별	-7834
생	-7835
충	-7836
프	-7837
𫓴	-7838
Ú	-7839
ң	-7840
Ա	-7841
ত	-7842
Ḥ	-7843
ἐ	-7844
䌹	-7845
婼	-7846
枥	-7847
栴	-7848
璹	-7849
矧	-7850
縠	-7851
缲	-7852
荑	-7853
菽	-7854
衪	-7855
逄	-7856
铡	-7857
陔	-7858
물	-7859
찬	-7860
𫛚	-7861
ɿ	-7862
ʦ	-7863
গ	-7864
ბ	-7865
⇔	-7866
┳	-7867
⟷	-7868
兎	-7869
凖	-7870
圀	-7871
憙	-7872
朏	-7873
桠	-7874
煅	-7875
芪	-7876
葰	-7877
衾	-7878
钲	-7879
魑	-7880
鲥	-7881
鹇	-7882
심	-7883
즈	-7884
흥	-7885
Þ	-7886
வ	-7887
ை	-7888
ซ	-7889
‍	-7890
䳍	-7891
呑	-7892
唷	-7893
峣	-7894
崤	-7895
徬	-7896
惆	-7897
揺	-7898
摭	-7899
晊	-7900
橐	-7901
珧	-7902
璪	-7903
膂	-7904
菫	-7905
躄	-7906
邲	-7907
醅	-7908
銭	-7909
鳊	-7910
매	-7911
범	-7912
ĩ	-7913
̚	-7914
چ	-7915
ड	-7916
ລ	-7917
အ	-7918
ṅ	-7919
ῆ	-7920
⇄	-7921
冽	-7922
呾	-7923
嘀	-7924
堞	-7925
庖	-7926
廼	-7927
弇	-7928
彖	-7929
悴	-7930
懃	-7931
搂	-7932
柟	-7933
樨	-7934
瀹	-7935
璥	-7936
缐	-7937
菪	-7938
貉	-7939
邋	-7940
閦	-7941
魃	-7942
þ	-7943
ظ	-7944
ជ	-7945
ぢ	-7946
哂	-7947
嫲	-7948
怆	-7949
暲	-7950
汚	-7951
胙	-7952
荽	-7953
褛	-7954
谆	-7955
遑	-7956
郈	-7957
陁	-7958
鵄	-7959
디	-7960
말	-7961
풍	-7962
Հ	-7963
ถ	-7964
็	-7965
េ	-7966
∙	-7967
│	-7968
偎	-7969
唉	-7970
寘	-7971
徼	-7972
悩	-7973
愎	-7974
拄	-7975
枧	-7976
柢	-7977
澥	-7978
燝	-7979
玦	-7980
珝	-7981
璮	-7982
畦	-7983
瘗	-7984
禔	-7985
绲	-7986
胼	-7987
舾	-7988
菡	-7989
虿	-7990
蠊	-7991
襞	-7992
蹙	-7993
辋	-7994
钸	-7995
镈	-7996
