<unk>	0
<s>	0
</s>	0
▁*	-0
20	-1
19	-2
201	-3
200	-4
),	-5
10	-6
一个	-7
er	-8
an	-9
18	-10
00	-11
中国	-12
▁19	-13
12	-14
大学	-15
on	-16
in	-17
美国	-18
11	-19
ar	-20
位于	-21
。19	-22
成为	-23
15	-24
)。	-25
▁201	-26
▁(	-27
第一	-28
地区	-29
▁《	-30
日本	-31
en	-32
al	-33
or	-34
公司	-35
的一	-36
17	-37
可以	-38
历史	-39
以及	-40
开始	-41
世界	-42
16	-43
▁-	-44
主要	-45
研究	-46
包括	-47
第二	-48
国家	-49
at	-50
▁200	-51
使用	-52
电影	-53
部分	-54
es	-55
香港	-56
▁S	-57
199	-58
14	-59
进行	-60
没有	-61
委员	-62
联赛	-63
其中	-64
学院	-65
其他	-66
学校	-67
车站	-68
13	-69
电视	-70
获得	-71
由于	-72
游戏	-73
21	-74
ic	-75
生物	-76
▁C	-77
是一	-78
之后	-79
作为	-80
建筑	-81
因此	-82
el	-83
30	-84
之一	-85
工作	-86
》(	-87
is	-88
音乐	-89
)、	-90
因为	-91
认为	-92
22	-93
▁在	-94
il	-95
球队	-96
台湾	-97
同时	-98
▁M	-99
中的	-100
政府	-101
国际	-102
中心	-103
自己	-104
..	-105
他的	-106
设计	-107
发现	-108
可能	-109
198	-110
25	-111
他们	-112
委员会	-113
当时	-114
铁路	-115
最后	-116
人口	-117
属于	-118
▁P	-119
人民	-120
冠军	-121
法国	-122
担任	-123
发展	-124
英国	-125
it	-126
作品	-127
文化	-128
23	-129
us	-130
▁20	-131
号线	-132
城市	-133
▁A	-134
▁第	-135
am	-136
▁B	-137
制作	-138
as	-139
通过	-140
28	-141
ur	-142
ol	-143
足球	-144
50	-145
称为	-146
时间	-147
发生	-148
经济	-149
成立	-150
不同	-151
代表	-152
管理	-153
系统	-154
政治	-155
比赛	-156
》,	-157
出现	-158
年代	-159
”。	-160
he	-161
也是	-162
教育	-163
计划	-164
▁T	-165
工程	-166
▁饰	-167
运动	-168
正式	-169
24	-170
et	-171
,19	-172
大的	-173
后来	-174
▁历史	-175
第三	-176
▁H	-177
▁生	-178
年的	-179
艺术	-180
表示	-181
进入	-182
▁R	-183
上的	-184
ch	-185
」,	-186
):	-187
世纪	-188
出版	-189
上海	-190
公里	-191
名为	-192
这个	-193
这些	-194
ion	-195
”,	-196
影响	-197
的一个	-198
学家	-199
德国	-200
期间	-201
▁L	-202
所有	-203
时期	-204
▁E	-205
根据	-206
面积	-207
之间	-208
社会	-209
有一	-210
成员	-211
细胞	-212
全国	-213
。201	-214
尼亚	-215
、《	-216
航空	-217
re	-218
ro	-219
罗斯	-220
ing	-221
西亚	-222
提供	-223
最终	-224
欧洲	-225
节目	-226
导致	-227
。200	-228
26	-229
目前	-230
出生	-231
un	-232
人物	-233
已经	-234
北京	-235
故事	-236
行政	-237
两个	-238
参加	-239
▁G	-240
许多	-241
到了	-242
27	-243
利亚	-244
▁F	-245
为了	-246
形成	-247
斯特	-248
演员	-249
发行	-250
生活	-251
》、《	-252
70	-253
人的	-254
结构	-255
决赛	-256
完成	-257
活动	-258
南部	-259
同年	-260
▁生平	-261
主义	-262
组织	-263
职业	-264
公园	-265
专辑	-266
取得	-267
29	-268
」。	-269
联合	-270
」(	-271
前往	-272
成功	-273
当地	-274
技术	-275
新闻	-276
ac	-277
om	-278
保护	-279
环境	-280
000	-281
195	-282
了一	-283
拥有	-284
▁D	-285
重要	-286
194	-287
196	-288
▁199	-289
:“	-290
来自	-291
集团	-292
le	-293
▁大	-294
。”	-295
二十	-296
系列	-297
and	-298
的地	-299
的大	-300
选择	-301
——	-302
举行	-303
决定	-304
id	-305
但是	-306
并且	-307
分布	-308
存在	-309
歌曲	-310
os	-311
▁本	-312
服务	-313
任务	-314
动物	-315
宣布	-316
球员	-317
分别	-318
北部	-319
战争	-320
最佳	-321
格兰	-322
首次	-323
关系	-324
合并	-325
帝国	-326
组成	-327
和国	-328
建立	-329
80	-330
角色	-331
▁K	-332
▁N	-333
他在	-334
图书	-335
中央	-336
交通	-337
时代	-338
具有	-339
经过	-340
ia	-341
市镇	-342
问题	-343
人员	-344
机场	-345
纪念	-346
赛季	-347
II	-348
列车	-349
单位	-350
印度	-351
of	-352
小说	-353
教授	-354
:「	-355
然而	-356
的人	-357
100	-358
毕业	-359
医院	-360
参与	-361
年度	-362
是在	-363
独立	-364
俄罗斯	-365
2010	-366
40	-367
▁d	-368
加入	-369
用于	-370
共和国	-371
ig	-372
平方	-373
方面	-374
最高	-375
▁W	-376
地铁	-377
负责	-378
飞机	-379
一些	-380
建设	-381
情况	-382
197	-383
主教	-384
特别	-385
联盟	-386
虽然	-387
46	-388
中学	-389
开发	-390
2011	-391
31	-392
ad	-393
ul	-394
▁O	-395
的是	-396
科学	-397
结束	-398
航天	-399
ot	-400
个人	-401
中华	-402
ph	-403
东南	-404
父亲	-405
项目	-406
一起	-407
十二	-408
相关	-409
贝尔	-410
博物	-411
35	-412
频道	-413
图书馆	-414
事件	-415
化学	-416
ay	-417
一般	-418
不过	-419
的女	-420
需要	-421
▁18	-422
ir	-423
年至	-424
年间	-425
高速	-426
三年	-427
公路	-428
大陆	-429
产生	-430
作曲	-431
标准	-432
附近	-433
.5	-434
》。	-435
以下	-436
区域	-437
得到	-438
纪录	-439
ent	-440
2013	-441
继续	-442
45	-443
植物	-444
结果	-445
通常	-446
博物馆	-447
60	-448
受到	-449
现在	-450
阿尔	-451
90	-452
后的	-453
广东	-454
道路	-455
军事	-456
苏联	-457
37	-458
名的	-459
▁of	-460
st	-461
▁t	-462
专业	-463
控制	-464
生涯	-465
规划	-466
一直	-467
改为	-468
罗马	-469
铁道	-470
38	-471
名称	-472
自由	-473
西南	-474
非常	-475
2019	-476
▁J	-477
内容	-478
分为	-479
博士	-480
有限	-481
超过	-482
造成	-483
阿拉	-484
主题	-485
海军	-486
儿子	-487
能力	-488
轨道	-489
自己的	-490
发射	-491
大利	-492
马来	-493
战斗	-494
来的	-495
语言	-496
ut	-497
主席	-498
乐部	-499
▁I	-500
传统	-501
例如	-502
克里	-503
只有	-504
新的	-505
深圳	-506
过程	-507
选手	-508
饰演	-509
这一	-510
俱乐部	-511
是一个	-512
2008	-513
ation	-514
东京	-515
之前	-516
于是	-517
位置	-518
十一	-519
增加	-520
成绩	-521
方式	-522
福建	-523
:00	-524
2014	-525
击败	-526
并在	-527
所以	-528
是由	-529
这种	-530
85	-531
:《	-532
ed	-533
会议	-534
另一	-535
推出	-536
生产	-537
要求	-538
路口	-539
合作	-540
四年	-541
▁:	-542
物种	-543
不能	-544
创作	-545
加拿	-546
第四	-547
采用	-548
2016	-549
▁195	-550
ra	-551
一世	-552
体育	-553
播出	-554
现代	-555
赛事	-556
2007	-557
举办	-558
分类	-559
另外	-560
家族	-561
直到	-562
女子	-563
广州	-564
指挥	-565
支持	-566
表现	-567
ter	-568
33	-569
多数	-570
家庭	-571
工业	-572
班牙	-573
西班牙	-574
2000	-575
2017	-576
1,	-577
克斯	-578
分析	-579
联邦	-580
进士	-581
选秀	-582
随后	-583
事务	-584
去世	-585
提出	-586
相当	-587
。(	-588
下的	-589
主任	-590
任何	-591
设立	-592
36	-593
反应	-594
形式	-595
电子	-596
进攻	-597
有限公司	-598
公尺	-599
利用	-600
就是	-601
都是	-602
1.	-603
47	-604
48	-605
im	-606
安全	-607
小学	-608
无法	-609
玩家	-610
设有	-611
设置	-612
um	-613
对于	-614
记载	-615
重新	-616
英格兰	-617
2009	-618
网络	-619
都市	-620
高等	-621
加拿大	-622
一种	-623
不久	-624
机构	-625
母亲	-626
2012	-627
32	-628
89	-629
区的	-630
它们	-631
将军	-632
接受	-633
文物	-634
物质	-635
ag	-636
▁李	-637
主角	-638
作用	-639
刘基	-640
国王	-641
境内	-642
时候	-643
2020	-644
也有	-645
功能	-646
生长	-647
美元	-648
2006	-649
三十	-650
元年	-651
她的	-652
学生	-653
歌手	-654
死亡	-655
(18	-656
意大利	-657
▁该	-658
东北	-659
发表	-660
商业	-661
宁波	-662
实验	-663
执行	-664
拍摄	-665
阶段	-666
亚洲	-667
制造	-668
发布	-669
平均	-670
性的	-671
此外	-672
浙江	-673
范围	-674
(16	-675
电视剧	-676
2015	-677
)(	-678
,《	-679
一家	-680
唯一	-681
唱片	-682
最初	-683
▁王	-684
军队	-685
剧情	-686
包含	-687
单曲	-688
导演	-689
(15	-690
隶属于	-691
东方	-692
东部	-693
协会	-694
市场	-695
开放	-696
改制	-697
旅游	-698
月台	-699
特征	-700
除了	-701
....	-702
34	-703
ie	-704
od	-705
变化	-706
约翰	-707
资格	-708
2.	-709
iv	-710
一样	-711
不是	-712
但在	-713
作词	-714
如果	-715
最早	-716
西部	-717
大量	-718
年后	-719
攻击	-720
日在	-721
有机	-722
西北	-723
2022	-724
马来西亚	-725
▁地	-726
版本	-727
球会	-728
行为	-729
调查	-730
逝世	-731
电视台	-732
2021	-733
人民共和国	-734
娱乐	-735
方向	-736
ard	-737
▁电影	-738
是一种	-739
av	-740
南京	-741
建成	-742
明朝	-743
交易	-744
年在	-745
曾经	-746
有关	-747
ec	-748
中文	-749
动画	-750
在此	-751
并入	-752
广播	-753
2003	-754
2018	-755
中国大陆	-756
39	-757
75	-758
国的	-759
地下	-760
太平	-761
挑战	-762
类似	-763
纽约	-764
连续	-765
部队	-766
长江	-767
ill	-768
改制为	-769
中华人民共和国	-770
机枪	-771
毫米	-772
法兰	-773
紫电	-774
自然	-775
级联赛	-776
▁2011	-777
二年	-778
人类	-779
排名	-780
斯堡	-781
边形	-782
高中	-783
82	-784
97	-785
▁歌	-786
一次	-787
伯特	-788
共有	-789
办公	-790
媒体	-791
居民	-792
教堂	-793
组合	-794
连接	-795
▁V	-796
。」	-797
两人	-798
主持	-799
全部	-800
完全	-801
行动	-802
领导	-803
第一次	-804
88	-805
ok	-806
乔治	-807
以来	-808
内的	-809
子的	-810
希望	-811
年起	-812
演唱	-813
理论	-814
离开	-815
科技	-816
背景	-817
▁与	-818
仍然	-819
共同	-820
农业	-821
地震	-822
学习	-823
学名	-824
建议	-825
早期	-826
葡萄	-827
The	-828
ant	-829
ell	-830
2001	-831
49	-832
使得	-833
并不	-834
引起	-835
河南	-836
社区	-837
综合	-838
计算	-839
议会	-840
顺位	-841
▁饰演	-842
运动员	-843
em	-844
▁s	-845
又称	-846
司令	-847
广场	-848
投资	-849
等地	-850
过去	-851
锦标	-852
韩国	-853
行政区	-854
2004	-855
44	-856
ce	-857
ou	-858
四川	-859
基础	-860
拉斯	-861
整个	-862
的第	-863
直接	-864
而且	-865
6-	-866
87	-867
公主	-868
出任	-869
建造	-870
所在	-871
数量	-872
甚至	-873
皇后	-874
长约	-875
非洲	-876
风险	-877
ang	-878
四边形	-879
95	-880
五年	-881
恢复	-882
ap	-883
▁U	-884
个月	-885
关于	-886
再次	-887
十六	-888
斯科	-889
时的	-890
的原	-891
票房	-892
英语	-893
街道	-894
路线	-895
还有	-896
被称为	-897
▁2013	-898
2-	-899
主演	-900
以上	-901
信息	-902
全球	-903
回到	-904
地方	-905
基督	-906
学位	-907
并于	-908
描述	-909
英超	-910
著作	-911
蒙古	-912
这是	-913
▁St	-914
最大的	-915
2005	-916
ha	-917
oc	-918
、“	-919
建于	-920
改编	-921
数据	-922
显示	-923
移动	-924
英文	-925
之间的	-926
3.	-927
ow	-928
▁刘	-929
▁原	-930
企业	-931
型的	-932
奖项	-933
实际	-934
少年	-935
尔顿	-936
巴黎	-937
银行	-938
出生于	-939
76	-940
96	-941
▁中	-942
」、	-943
严重	-944
发动	-945
有的	-946
漫画	-947
荣誉	-948
资源	-949
出版社	-950
选择奖	-951
2002	-952
▁c	-953
定的	-954
山西	-955
很多	-956
总统	-957
飞行	-958
ine	-959
大部分	-960
%,	-961
01	-962
▁m	-963
▁高	-964
内部	-965
分钟	-966
评价	-967
车辆	-968
选举	-969
ers	-970
,000	-971
▁2016	-972
)-	-973
伦敦	-974
则是	-975
学科	-976
州市	-977
法律	-978
经常	-979
者的	-980
著名	-981
配音	-982
酒店	-983
预科	-984
all	-985
二世	-986
名字	-987
战后	-988
效力	-989
教练	-990
球季	-991
表面	-992
设施	-993
▁ED	-994
其后	-995
团体	-996
天文	-997
年被	-998
报告	-999
模式	-1000
男子	-1001
简称	-1002
部份	-1003
▁中国	-1004
锦标赛	-1005
1998	-1006
。195	-1007
1-	-1008
▁金	-1009
三个	-1010
入口	-1011
开通	-1012
最大	-1013
生于	-1014
维奇	-1015
自动	-1016
贸易	-1017
走向	-1018
合并为	-1019
最后一	-1020
的主要	-1021
ak	-1022
ov	-1023
会长	-1024
剪辑	-1025
威廉	-1026
将其	-1027
市的	-1028
收录	-1029
朝鲜	-1030
等人	-1031
能够	-1032
自治	-1033
荷兰	-1034
训练	-1035
运营	-1036
青年	-1037
风格	-1038
大学预科	-1039
上映	-1040
医学	-1041
太阳	-1042
官方	-1043
山东	-1044
必须	-1045
快速	-1046
战役	-1047
持续	-1048
教学	-1049
治疗	-1050
白色	-1051
皇家	-1052
逐渐	-1053
部门	-1054
▁2008	-1055
05	-1056
42	-1057
St	-1058
og	-1059
。《	-1060
不会	-1061
中部	-1062
地球	-1063
夏季	-1064
安徽	-1065
富士	-1066
尚书	-1067
帮助	-1068
彼得	-1069
斯坦	-1070
方法	-1071
流行	-1072
演出	-1073
线的	-1074
经历	-1075
至今	-1076
评论	-1077
身体	-1078
”、“	-1079
的一种	-1080
”(	-1081
为主	-1082
产品	-1083
各种	-1084
国民	-1085
夺得	-1086
属的	-1087
山脉	-1088
曼联	-1089
期的	-1090
民族	-1091
皇帝	-1092
达到	-1093
ist	-1094
可前往	-1095
0.	-1096
ub	-1097
▁东	-1098
以色	-1099
作家	-1100
分子	-1101
台北	-1102
基本	-1103
多的	-1104
女性	-1105
官员	-1106
小时	-1107
改变	-1108
民主	-1109
知道	-1110
药物	-1111
身份	-1112
ies	-1113
65	-1114
67	-1115
▁7	-1116
▁新	-1117
城区	-1118
妻子	-1119
我们	-1120
明显	-1121
昭和	-1122
有时	-1123
继承	-1124
编曲	-1125
重点	-1126
以色列	-1127
分布于	-1128
阿拉伯	-1129
高速公路	-1130
84	-1131
99	-1132
ob	-1133
▁北	-1134
▁马	-1135
公分	-1136
化石	-1137
同样	-1138
太子	-1139
空军	-1140
结婚	-1141
统治	-1142
路易	-1143
遗址	-1144
是中国	-1145
,“	-1146
86	-1147
op	-1148
▁b	-1149
一年	-1150
希腊	-1151
年轻	-1152
森林	-1153
比亚	-1154
相同	-1155
经营	-1156
领域	-1157
(17	-1158
64	-1159
PS	-1160
ue	-1161
亚历	-1162
先后	-1163
十七	-1164
原本	-1165
命名	-1166
园区	-1167
夫人	-1168
广岛	-1169
成都	-1170
教会	-1171
日报	-1172
此时	-1173
比较	-1174
气候	-1175
测试	-1176
的小	-1177
的新	-1178
目标	-1179
规模	-1180
▁de	-1181
政治人物	-1182
▁2010	-1183
);	-1184
▁1	-1185
▁长	-1186
作战	-1187
大约	-1188
机车	-1189
澳门	-1190
然后	-1191
牠们	-1192
生命	-1193
胎儿	-1194
距离	-1195
边界	-1196
长的	-1197
02	-1198
AR	-1199
业务	-1200
交流	-1201
几乎	-1202
利物	-1203
反对	-1204
土地	-1205
学者	-1206
是指	-1207
清朝	-1208
线路	-1209
表演	-1210
这样	-1211
颁奖	-1212
500	-1213
est	-1214
亚历山	-1215
利物浦	-1216
第二次	-1217
选秀权	-1218
ik	-1219
ip	-1220
▁三	-1221
俄军	-1222
医生	-1223
十三	-1224
因而	-1225
御史	-1226
晋级	-1227
细菌	-1228
▁车站	-1229
不同的	-1230
更名为	-1231
的时候	-1232
▁2018	-1233
▁2020	-1234
%。	-1235
43	-1236
81	-1237
▁f	-1238
▁此	-1239
万人	-1240
半岛	-1241
大致	-1242
太郎	-1243
威尔	-1244
实现	-1245
左右	-1246
护照	-1247
文学	-1248
日军	-1249
条件	-1250
江西	-1251
状态	-1252
的主	-1253
祖父	-1254
美术	-1255
这里	-1256
遭到	-1257
隧道	-1258
革命	-1259
150	-1260
他们的	-1261
研究所	-1262
▁2012	-1263
98	-1264
▁,	-1265
事故	-1266
以后	-1267
十八	-1268
十年	-1269
周边	-1270
无线	-1271
普通	-1272
曾在	-1273
有效	-1274
未来	-1275
杂志	-1276
概念	-1277
理学	-1278
站台	-1279
第五	-1280
观察	-1281
资料	-1282
▁the	-1283
2,	-1284
IC	-1285
▁伊	-1286
▁张	-1287
一步	-1288
出了	-1289
列表	-1290
剧场	-1291
加盟	-1292
取代	-1293
定义	-1294
政策	-1295
王朝	-1296
瑞典	-1297
运行	-1298
长期	-1299
主题曲	-1300
平方米	-1301
▁2014	-1302
▁2017	-1303
68	-1304
ea	-1305
▁5	-1306
▁「	-1307
▁安	-1308
▁的	-1309
▁阿	-1310
乡道	-1311
儿童	-1312
名单	-1313
国内	-1314
大会	-1315
少女	-1316
应用	-1317
延伸	-1318
影片	-1319
损失	-1320
曾任	-1321
来源	-1322
泰国	-1323
苗栗	-1324
覆盖	-1325
记录	-1326
部长	-1327
随着	-1328
雷根	-1329
被认为	-1330
航天飞机	-1331
▁2019	-1332
72	-1333
Co	-1334
ud	-1335
会在	-1336
公开	-1337
准备	-1338
出场	-1339
出的	-1340
司马	-1341
宗教	-1342
实施	-1343
州的	-1344
旅客	-1345
止于	-1346
温度	-1347
art	-1348
ong	-1349
。18	-1350
克里斯	-1351
大多数	-1352
本地区	-1353
平方公里	-1354
▁2015	-1355
04	-1356
TC	-1357
nd	-1358
▁/	-1359
▁3	-1360
▁年	-1361
一位	-1362
一度	-1363
下辖	-1364
之战	-1365
事业	-1366
代目	-1367
传说	-1368
及其	-1369
双方	-1370
哈尔	-1371
基于	-1372
它的	-1373
对手	-1374
尽管	-1375
平台	-1376
教师	-1377
林匹	-1378
每年	-1379
的海	-1380
行星	-1381
议员	-1382
设备	-1383
通车	-1384
首都	-1385
▁主要	-1386
▁其他	-1387
▁制作	-1388
▁音乐	-1389
第一个	-1390
,198	-1391
,199	-1392
雷根斯堡	-1393
▁简	-1394
▁西	-1395
兴建	-1396
厘米	-1397
喜欢	-1398
奥运	-1399
定为	-1400
居住	-1401
布拉	-1402
杀死	-1403
火星	-1404
科夫	-1405
织田	-1406
美洲	-1407
萨克	-1408
表明	-1409
高级	-1410
ric	-1411
顺位被	-1412
文物保护	-1413
▁2005	-1414
▁2021	-1415
▁2022	-1416
oh	-1417
ry	-1418
▁“	-1419
公布	-1420
基因	-1421
多次	-1422
明治	-1423
校区	-1424
破坏	-1425
空间	-1426
选走	-1427
世界大	-1428
奥林匹	-1429
情况下	-1430
的一部分	-1431
ge	-1432
▁6	-1433
▁p	-1434
▁南	-1435
一名	-1436
之子	-1437
五原	-1438
产业	-1439
体的	-1440
加上	-1441
各地	-1442
塞尔	-1443
接壤	-1444
日起	-1445
登场	-1446
相对	-1447
而在	-1448
色的	-1449
观众	-1450
骑士	-1451
oph	-1452
▁日本	-1453
▁。	-1454
▁参	-1455
天津	-1456
广泛	-1457
文章	-1458
未能	-1459
波兰	-1460
电车	-1461
疾病	-1462
课程	-1463
赢得	-1464
运输	-1465
选区	-1466
ens	-1467
办公室	-1468
并没有	-1469
是美国	-1470
94	-1471
AS	-1472
▁黄	-1473
不可	-1474
亚军	-1475
克兰	-1476
广告	-1477
男性	-1478
程序	-1479
职棒	-1480
视为	-1481
谢安	-1482
速度	-1483
长度	-1484
马克	-1485
(14	-1486
ran	-1487
的地方	-1488
运动会	-1489
▁2007	-1490
4.	-1491
66	-1492
73	-1493
93	-1494
ER	-1495
if	-1496
ne	-1497
入选	-1498
在一	-1499
多个	-1500
戏剧	-1501
战狼	-1502
投入	-1503
指出	-1504
收入	-1505
校长	-1506
此后	-1507
湖南	-1508
特殊	-1509
省份	-1510
统计	-1511
编号	-1512
编码	-1513
缺乏	-1514
节度	-1515
营运	-1516
陆军	-1517
随著	-1518
(19	-1519
▁Ch	-1520
▁地理	-1521
▁由于	-1522
是日本	-1523
有一个	-1524
诺贝尔	-1525
AT	-1526
▁2	-1527
九年	-1528
书记	-1529
云南	-1530
价值	-1531
任命	-1532
保留	-1533
兄弟	-1534
公元	-1535
再度	-1536
加利	-1537
南北	-1538
大型	-1539
好的	-1540
山县	-1541
德里	-1542
或是	-1543
斯顿	-1544
某些	-1545
种子	-1546
结合	-1547
统一	-1548
聚落	-1549
芬兰	-1550
金牌	-1551
阴道	-1552
限制	-1553
▁10	-1554
在美国	-1555
毕业于	-1556
葡萄牙	-1557
过程中	-1558
63	-1559
▁小	-1560
保持	-1561
先生	-1562
加州	-1563
协议	-1564
圣诞	-1565
失去	-1566
就读	-1567
康熙	-1568
律宾	-1569
斯的	-1570
机体	-1571
澳大	-1572
精神	-1573
谋杀	-1574
起来	-1575
还是	-1576
队的	-1577
her	-1578
ina	-1579
▁最佳	-1580
▁根据	-1581
挑战者	-1582
的影响	-1583
的研究	-1584
莫斯科	-1585
菲律宾	-1586
亚历山大	-1587
高等学校	-1588
09	-1589
74	-1590
BA	-1591
▁一	-1592
万历	-1593
专门	-1594
中有	-1595
人们	-1596
关闭	-1597
前的	-1598
协助	-1599
四大	-1600
基金	-1601
常见	-1602
得以	-1603
或者	-1604
日治	-1605
水道	-1606
海外	-1607
用的	-1608
羽毛	-1609
蛋白	-1610
迅速	-1611
都会	-1612
驾驶	-1613
ian	-1614
历史上	-1615
天主教	-1616
▁and	-1617
▁2006	-1618
41	-1619
Al	-1620
ns	-1621
为一	-1622
之外	-1623
公共	-1624
国防	-1625
处理	-1626
大臣	-1627
小的	-1628
拉夫	-1629
染色	-1630
江苏	-1631
汽车	-1632
淘汰	-1633
现象	-1634
的中	-1635
的前	-1636
移民	-1637
舞台	-1638
返回	-1639
鳄鱼	-1640
▁演员	-1641
也可以	-1642
圣乔治	-1643
是位于	-1644
法兰克	-1645
获得了	-1646
著名的	-1647
澳大利亚	-1648
文物保护单位	-1649
57	-1650
IN	-1651
TV	-1652
te	-1653
中书	-1654
从事	-1655
创办	-1656
基地	-1657
学术	-1658
宣传	-1659
尔的	-1660
支线	-1661
欧联	-1662
球场	-1663
维亚	-1664
西阿	-1665
说明	-1666
邀请	-1667
里斯	-1668
高度	-1669
UTC	-1670
oun	-1671
的女儿	-1672
节度使	-1673
重要的	-1674
55	-1675
83	-1676
Ch	-1677
DL	-1678
▁Y	-1679
▁二	-1680
信长	-1681
光明	-1682
卑斯	-1683
占领	-1684
发育	-1685
取消	-1686
启用	-1687
国会	-1688
城堡	-1689
复兴	-1690
大桥	-1691
大道	-1692
家的	-1693
成了	-1694
日的	-1695
明星	-1696
步兵	-1697
法院	-1698
热带	-1699
特色	-1700
维持	-1701
转移	-1702
重建	-1703
院长	-1704
上海市	-1705
的儿子	-1706
的故事	-1707
进一步	-1708
1999	-1709
人民政府	-1710
行政区划	-1711
阿尔卑斯	-1712
▁2004	-1713
SB	-1714
ab	-1715
ep	-1716
一同	-1717
不再	-1718
东西	-1719
健康	-1720
出口	-1721
十分	-1722
只能	-1723
固体	-1724
容易	-1725
布鲁	-1726
意识	-1727
拒绝	-1728
收购	-1729
旅行	-1730
是否	-1731
每个	-1732
爆炸	-1733
生存	-1734
田中	-1735
稳定	-1736
米尔	-1737
网站	-1738
而成	-1739
警察	-1740
该庄	-1741
障碍	-1742
300	-1743
▁美国	-1744
何西阿	-1745
并止于	-1746
的第一	-1747
编码为	-1748
航天局	-1749
-1	-1750
la	-1751
▁陈	-1752
人在	-1753
侍郎	-1754
停止	-1755
出来	-1756
刺史	-1757
原因	-1758
合约	-1759
大区	-1760
天皇	-1761
尤其	-1762
山口	-1763
抵达	-1764
接近	-1765
早年	-1766
月升	-1767
极端	-1768
死后	-1769
河北	-1770
海拔	-1771
的对	-1772
签约	-1773
议院	-1774
贡献	-1775
越南	-1776
食物	-1777
igh	-1778
万美元	-1779
了一个	-1780
年开始	-1781
▁从	-1782
▁曾	-1783
之下	-1784
作者	-1785
其余	-1786
初期	-1787
医疗	-1788
后期	-1789
周围	-1790
外交	-1791
外国	-1792
学会	-1793
将会	-1794
当中	-1795
快车	-1796
总督	-1797
批评	-1798
朋友	-1799
柏林	-1800
流域	-1801
神经	-1802
退出	-1803
邻近	-1804
郎中	-1805
销量	-1806
麦克	-1807
,18	-1808
乌克兰	-1809
国家队	-1810
的生物	-1811
▁2009	-1812
2》	-1813
77	-1814
78	-1815
ev	-1816
up	-1817
两种	-1818
举人	-1819
共产	-1820
十字	-1821
又名	-1822
同一	-1823
周年	-1824
奥斯	-1825
女儿	-1826
批准	-1827
改造	-1828
效果	-1829
时空	-1830
本科	-1831
来到	-1832
标本	-1833
比西	-1834
氧化	-1835
注意	-1836
照片	-1837
王国	-1838
生态	-1839
知名	-1840
群岛	-1841
那里	-1842
都有	-1843
▁第二	-1844
▁香港	-1845
事务所	-1846
大联盟	-1847
广东省	-1848
染色体	-1849
苏格兰	-1850
轨电车	-1851
1990	-1852
挑战者号	-1853
深圳地铁	-1854
▁前	-1855
▁文	-1856
▁自	-1857
事实	-1858
俄国	-1859
利普	-1860
到达	-1861
勋章	-1862
参赛	-1863
地位	-1864
地面	-1865
增长	-1866
学士	-1867
尔德	-1868
工厂	-1869
巴西	-1870
市区	-1871
应该	-1872
我的	-1873
拉克	-1874
改革	-1875
无人	-1876
机会	-1877
的首	-1878
程度	-1879
说法	-1880
调整	-1881
路段	-1882
透过	-1883
里亚	-1884
重庆	-1885
-18	-1886
」、「	-1887
太平洋	-1888
是一名	-1889
宁波大学	-1890
59	-1891
79	-1892
PI	-1893
th	-1894
一段	-1895
三角	-1896
临时	-1897
乐团	-1898
优秀	-1899
传媒	-1900
修建	-1901
元璋	-1902
公爵	-1903
其它	-1904
典礼	-1905
出局	-1906
十五	-1907
华盛	-1908
南非	-1909
县道	-1910
变形	-1911
合物	-1912
安东	-1913
尔斯	-1914
师范	-1915
带领	-1916
户部	-1917
换乘	-1918
时段	-1919
柳赖	-1920
桥梁	-1921
演奏	-1922
爱情	-1923
由此	-1924
申请	-1925
病毒	-1926
看到	-1927
维尔	-1928
考试	-1929
装备	-1930
豪门	-1931
针对	-1932
霍夫	-1933
ich	-1934
▁剧情	-1935
世界杯	-1936
出现在	-1937
成为了	-1938
朱元璋	-1939
线路口	-1940
进行了	-1941
轮选秀权	-1942
okies	-1943
.2	-1944
03	-1945
BC	-1946
km	-1947
qu	-1948
▁9	-1949
▁概	-1950
主力	-1951
只是	-1952
嘉义	-1953
声音	-1954
多年	-1955
失败	-1956
安排	-1957
形态	-1958
总长	-1959
意义	-1960
意思	-1961
打击	-1962
数学	-1963
欢迎	-1964
正常	-1965
爆发	-1966
犹太	-1967
的高	-1968
省道	-1969
而被	-1970
董事	-1971
面对	-1972
颜色	-1973
食性	-1974
马拉	-1975
(13	-1976
华盛顿	-1977
命名为	-1978
州刺史	-1979
比西圣乔治	-1980
航空航天局	-1981
JT	-1982
▁4	-1983
▁卡	-1984
不得	-1985
不足	-1986
乘组	-1987
乳猪	-1988
争议	-1989
体重	-1990
入侵	-1991
出身	-1992
北方	-1993
华人	-1994
双向	-1995
和平	-1996
唐朝	-1997
圆形	-1998
士兵	-1999
姆斯	-2000
座堂	-2001
才能	-2002
报道	-2003
摩洛	-2004
本站	-2005
次年	-2006
武器	-2007
武装	-2008
海岸	-2009
现场	-2010
的后	-2011
秘书	-2012
篮球	-2013
编剧	-2014
美学	-2015
胜利	-2016
起源	-2017
阿仙	-2018
▁交通	-2019
▁人口	-2020
▁家族	-2021
女主角	-2022
奥林匹克	-2023
▁电影剪辑	-2024
足球俱乐部	-2025
宁波大学园区	-2026
07	-2027
5-	-2028
71	-2029
ri	-2030
▁v	-2031
▁于	-2032
七年	-2033
九州	-2034
亨利	-2035
人士	-2036
休克	-2037
减少	-2038
创建	-2039
太祖	-2040
山区	-2041
广西	-2042
政宗	-2043
最低	-2044
有人	-2045
机械	-2046
构成	-2047
栖息	-2048
比利	-2049
玻璃	-2050
装甲	-2051
西兰	-2052
试图	-2053
这次	-2054
退役	-2055
避免	-2056
▁in	-2057
可能是	-2058
现在的	-2059
紫电改	-2060
有轨电车	-2061
▁2002	-2062
58	-2063
61	-2064
▁水	-2065
▁罗	-2066
上下	-2067
下降	-2068
亦有	-2069
他是	-2070
力的	-2071
十四	-2072
千米	-2073
历任	-2074
后者	-2075
和华	-2076
国立	-2077
委会	-2078
干线	-2079
当选	-2080
形环	-2081
总理	-2082
总部	-2083
找到	-2084
投降	-2085
指导	-2086
提到	-2087
提升	-2088
提名	-2089
撤销	-2090
放弃	-2091
机关	-2092
海上	-2093
清真	-2094
物理	-2095
硕士	-2096
管辖	-2097
类型	-2098
而是	-2099
鸟类	-2100
ert	-2101
las	-2102
使用的	-2103
出入口	-2104
和其他	-2105
是法国	-2106
被并入	-2107
阿仙奴	-2108
......	-2109
(7	-2110
62	-2111
SE	-2112
▁当	-2113
▁是	-2114
▁郑	-2115
一座	-2116
乘客	-2117
什么	-2118
伊斯	-2119
全线	-2120
公众	-2121
列为	-2122
南南	-2123
原名	-2124
原子	-2125
县的	-2126
团队	-2127
地带	-2128
坦克	-2129
外的	-2130
太空	-2131
如何	-2132
孩子	-2133
完整	-2134
开设	-2135
引入	-2136
引擎	-2137
德尔	-2138
感染	-2139
拉丁	-2140
拉德	-2141
授予	-2142
操作	-2143
普查	-2144
曲目	-2145
本身	-2146
父母	-2147
电台	-2148
皮肤	-2149
论文	-2150
阿富	-2151
集中	-2152
领队	-2153
风景	-2154
首播	-2155
龙的	-2156
基督教	-2157
成立于	-2158
摩洛哥	-2159
的道路	-2160
羽毛球	-2161
霍夫曼	-2162
.7	-2163
06	-2164
56	-2165
不断	-2166
交换	-2167
介绍	-2168
从而	-2169
六年	-2170
力量	-2171
动作	-2172
势力	-2173
县人	-2174
同意	-2175
在其	-2176
少数	-2177
尔巴	-2178
平面	-2179
年龄	-2180
并非	-2181
摄影	-2182
日至	-2183
星期	-2184
有些	-2185
材料	-2186
正在	-2187
混合	-2188
率领	-2189
理事	-2190
确认	-2191
红色	-2192
经理	-2193
美军	-2194
贯通	-2195
超级	-2196
重量	-2197
队伍	-2198
黑色	-2199
III	-2200
ark	-2201
aur	-2202
▁In	-2203
东南亚	-2204
地区的	-2205
柳赖德	-2206
清真寺	-2207
Cookies	-2208
92	-2209
BS	-2210
eg	-2211
▁8	-2212
▁圣	-2213
▁对	-2214
▁杨	-2215
▁红	-2216
丈夫	-2217
下令	-2218
不少	-2219
专家	-2220
估计	-2221
变成	-2222
可达	-2223
命令	-2224
妇女	-2225
寻找	-2226
小组	-2227
尔省	-2228
岁的	-2229
库拉	-2230
康力	-2231
患者	-2232
探测	-2233
杉矶	-2234
河畔	-2235
法尔	-2236
澳洲	-2237
特的	-2238
瓢虫	-2239
直至	-2240
相似	-2241
社长	-2242
考虑	-2243
裁判	-2244
解释	-2245
该片	-2246
这座	-2247
里的	-2248
闽南	-2249
防御	-2250
面的	-2251
高的	-2252
ity	-2253
▁分类	-2254
▁台湾	-2255
▁政治	-2256
大学的	-2257
当时的	-2258
微生物	-2259
洛杉矶	-2260
的发展	-2261
结束后	-2262
阿拉斯	-2263
世界大战	-2264
东方快车	-2265
▁2003	-2266
ST	-2267
ah	-2268
▁亚	-2269
▁日	-2270
一条	-2271
也不	-2272
人数	-2273
供应	-2274
保罗	-2275
剧集	-2276
助推	-2277
危险	-2278
台中	-2279
咖啡	-2280
哥华	-2281
固定	-2282
多种	-2283
大奖	-2284
子女	-2285
小型	-2286
引发	-2287
慕容	-2288
方案	-2289
有所	-2290
武汉	-2291
波洛	-2292
波罗	-2293
海洋	-2294
湖北	-2295
瑞士	-2296
甘肃	-2297
田村	-2298
神社	-2299
至少	-2300
规则	-2301
解决	-2302
解放	-2303
讲述	-2304
路士	-2305
食品	-2306
400	-2307
ack	-2308
ind	-2309
our	-2310
son	-2311
▁第一	-2312
举行的	-2313
凯库拉	-2314
可以在	-2315
得到了	-2316
比赛中	-2317
毕业后	-2318
温哥华	-2319
科学院	-2320
部尚书	-2321
特柳赖德	-2322
.4	-2323
An	-2324
ON	-2325
ai	-2326
丰富	-2327
产地	-2328
亲自	-2329
作物	-2330
允许	-2331
八年	-2332
公会	-2333
公斤	-2334
加哥	-2335
动力	-2336
化的	-2337
启动	-2338
四个	-2339
大夫	-2340
婚姻	-2341
延长	-2342
强烈	-2343
得名	-2344
德华	-2345
战略	-2346
执导	-2347
按照	-2348
提高	-2349
收视	-2350
时任	-2351
状况	-2352
监督	-2353
私人	-2354
繁殖	-2355
给予	-2356
翻译	-2357
装置	-2358
褐色	-2359
观测	-2360
解散	-2361
证据	-2362
辽宁	-2363
遗产	-2364
金属	-2365
陕西	-2366
顾问	-2367
SBN	-2368
ast	-2369
ial	-2370
ust	-2371
公司的	-2372
副主席	-2373
助推器	-2374
所在地	-2375
深圳市	-2376
芝加哥	-2377
菲利普	-2378
2023	-2379
联赛冠军	-2380
.3	-2381
91	-2382
JR	-2383
ew	-2384
ke	-2385
▁他	-2386
▁现	-2387
▁白	-2388
也在	-2389
保存	-2390
公民	-2391
创立	-2392
制度	-2393
地利	-2394
埃尔	-2395
复杂	-2396
宇宙	-2397
尼克	-2398
展开	-2399
展示	-2400
展览	-2401
差异	-2402
年以	-2403
并未	-2404
恐龙	-2405
所属	-2406
扩展	-2407
抑制	-2408
方的	-2409
核心	-2410
模型	-2411
民间	-2412
江户	-2413
流通	-2414
海峡	-2415
留下	-2416
百禄	-2417
的三	-2418
等等	-2419
终于	-2420
经典	-2421
脱离	-2422
营养	-2423
萨斯	-2424
血管	-2425
讨论	-2426
达成	-2427
通道	-2428
部的	-2429
预言	-2430
食用	-2431
ann	-2432
▁OP	-2433
▁本鱼	-2434
克斯坦	-2435
奥地利	-2436
康力龙	-2437
张单曲	-2438
范百禄	-2439
车路士	-2440
职业生涯	-2441
宁波大学园区图书馆	-2442
.9	-2443
3-	-2444
51	-2445
53	-2446
69	-2447
uc	-2448
ug	-2449
▁上	-2450
▁四	-2451
▁黑	-2452
两次	-2453
为人	-2454
主事	-2455
主张	-2456
乡试	-2457
了解	-2458
二期	-2459
伯爵	-2460
先进	-2461
全长	-2462
出演	-2463
分离	-2464
即位	-2465
压力	-2466
国道	-2467
在该	-2468
地点	-2469
地的	-2470
埃及	-2471
如此	-2472
官至	-2473
局长	-2474
弗朗	-2475
影视	-2476
思想	-2477
报纸	-2478
文字	-2479
是以	-2480
来说	-2481
查理	-2482
标志	-2483
检查	-2484
法官	-2485
港口	-2486
用来	-2487
目的	-2488
确定	-2489
突然	-2490
第七	-2491
第八	-2492
终点	-2493
能源	-2494
航线	-2495
规定	-2496
请求	-2497
较为	-2498
部落	-2499
隶属	-2500
雷斯	-2501
ory	-2502
▁12	-2503
▁简介	-2504
主持人	-2505
另一个	-2506
改名为	-2507
是一位	-2508
的一座	-2509
的成员	-2510
省道台	-2511
西南部	-2512
骑士团	-2513
1996	-2514
被认为是	-2515
eb	-2516
▁艾	-2517
一带	-2518
上有	-2519
专区	-2520
乔伊	-2521
▁	-2522
,	-2523
的	-2524
。	-2525
1	-2526
0	-2527
年	-2528
2	-2529
、	-2530
*	-2531
)	-2532
(	-2533
一	-2534
为	-2535
在	-2536
9	-2537
中	-2538
是	-2539
国	-2540
a	-2541
e	-2542
大	-2543
于	-2544
人	-2545
有	-2546
5	-2547
3	-2548
8	-2549
i	-2550
:	-2551
月	-2552
和	-2553
4	-2554
学	-2555
o	-2556
n	-2557
后	-2558
日	-2559
r	-2560
6	-2561
7	-2562
以	-2563
成	-2564
时	-2565
了	-2566
地	-2567
生	-2568
t	-2569
出	-2570
会	-2571
上	-2572
部	-2573
s	-2574
l	-2575
作	-2576
第	-2577
-	-2578
斯	-2579
个	-2580
不	-2581
之	-2582
》	-2583
《	-2584
与	-2585
名	-2586
·	-2587
他	-2588
分	-2589
公	-2590
区	-2591
西	-2592
主	-2593
行	-2594
发	-2595
家	-2596
长	-2597
尔	-2598
其	-2599
子	-2600
南	-2601
本	-2602
被	-2603
市	-2604
下	-2605
到	-2606
军	-2607
位	-2608
物	-2609
并	-2610
道	-2611
东	-2612
而	-2613
及	-2614
用	-2615
u	-2616
特	-2617
由	-2618
赛	-2619
来	-2620
最	-2621
新	-2622
三	-2623
员	-2624
法	-2625
克	-2626
文	-2627
.	-2628
可	-2629
同	-2630
路	-2631
高	-2632
多	-2633
北	-2634
前	-2635
h	-2636
任	-2637
开	-2638
球	-2639
亚	-2640
德	-2641
二	-2642
建	-2643
山	-2644
自	-2645
得	-2646
加	-2647
方	-2648
电	-2649
事	-2650
对	-2651
这	-2652
里	-2653
c	-2654
机	-2655
利	-2656
“	-2657
至	-2658
”	-2659
S	-2660
代	-2661
d	-2662
战	-2663
因	-2664
美	-2665
入	-2666
内	-2667
线	-2668
现	-2669
动	-2670
世	-2671
十	-2672
此	-2673
车	-2674
所	-2675
海	-2676
也	-2677
联	-2678
天	-2679
小	-2680
合	-2681
拉	-2682
体	-2683
」	-2684
「	-2685
经	-2686
过	-2687
教	-2688
进	-2689
科	-2690
期	-2691
m	-2692
等	-2693
间	-2694
业	-2695
A	-2696
C	-2697
工	-2698
王	-2699
台	-2700
平	-2701
队	-2702
州	-2703
要	-2704
次	-2705
政	-2706
能	-2707
将	-2708
安	-2709
马	-2710
化	-2711
制	-2712
原	-2713
当	-2714
但	-2715
立	-2716
P	-2717
通	-2718
该	-2719
场	-2720
度	-2721
理	-2722
号	-2723
外	-2724
站	-2725
城	-2726
设	-2727
面	-2728
全	-2729
表	-2730
都	-2731
性	-2732
比	-2733
种	-2734
称	-2735
重	-2736
四	-2737
明	-2738
院	-2739
g	-2740
县	-2741
者	-2742
两	-2743
使	-2744
演	-2745
;	-2746
罗	-2747
民	-2748
T	-2749
定	-2750
力	-2751
布	-2752
士	-2753
女	-2754
兰	-2755
选	-2756
村	-2757
相	-2758
基	-2759
金	-2760
史	-2761
水	-2762
乐	-2763
改	-2764
目	-2765
英	-2766
口	-2767
组	-2768
尼	-2769
p	-2770
色	-2771
影	-2772
省	-2773
起	-2774
首	-2775
系	-2776
司	-2777
I	-2778
形	-2779
y	-2780
式	-2781
阿	-2782
格	-2783
约	-2784
书	-2785
语	-2786
B	-2787
历	-2788
计	-2789
治	-2790
M	-2791
林	-2792
米	-2793
校	-2794
关	-2795
曲	-2796
正	-2797
型	-2798
从	-2799
属	-2800
达	-2801
广	-2802
元	-2803
E	-2804
运	-2805
D	-2806
列	-2807
或	-2808
数	-2809
向	-2810
常	-2811
音	-2812
界	-2813
交	-2814
手	-2815
结	-2816
华	-2817
剧	-2818
R	-2819
k	-2820
铁	-2821
接	-2822
无	-2823
级	-2824
江	-2825
心	-2826
总	-2827
夫	-2828
量	-2829
太	-2830
河	-2831
务	-2832
实	-2833
曾	-2834
田	-2835
视	-2836
团	-2837
L	-2838
港	-2839
产	-2840
提	-2841
点	-2842
类	-2843
单	-2844
岛	-2845
如	-2846
说	-2847
龙	-2848
五	-2849
万	-2850
集	-2851
共	-2852
然	-2853
巴	-2854
统	-2855
空	-2856
获	-2857
门	-2858
N	-2859
流	-2860
游	-2861
师	-2862
包	-2863
石	-2864
府	-2865
社	-2866
们	-2867
受	-2868
保	-2869
品	-2870
纪	-2871
O	-2872
意	-2873
歌	-2874
始	-2875
参	-2876
季	-2877
传	-2878
已	-2879
就	-2880
奖	-2881
片	-2882
星	-2883
专	-2884
情	-2885
直	-2886
朝	-2887
b	-2888
义	-2889
程	-2890
光	-2891
身	-2892
术	-2893
维	-2894
则	-2895
导	-2896
打	-2897
著	-2898
周	-2899
回	-2900
奥	-2901
处	-2902
/	-2903
卡	-2904
应	-2905
管	-2906
角	-2907
委	-2908
官	-2909
H	-2910
议	-2911
香	-2912
指	-2913
古	-2914
转	-2915
版	-2916
报	-2917
别	-2918
更	-2919
京	-2920
取	-2921
击	-2922
波	-2923
节	-2924
神	-2925
领	-2926
图	-2927
馆	-2928
张	-2929
些	-2930
白	-2931
造	-2932
职	-2933
G	-2934
川	-2935
头	-2936
非	-2937
变	-2938
展	-2939
f	-2940
洲	-2941
还	-2942
少	-2943
信	-2944
研	-2945
局	-2946
福	-2947
风	-2948
普	-2949
伊	-2950
K	-2951
航	-2952
近	-2953
—	-2954
去	-2955
决	-2956
活	-2957
字	-2958
只	-2959
园	-2960
收	-2961
认	-2962
足	-2963
根	-2964
她	-2965
资	-2966
知	-2967
记	-2968
边	-2969
没	-2970
段	-2971
清	-2972
帝	-2973
镇	-2974
v	-2975
宗	-2976
编	-2977
儿	-2978
带	-2979
划	-2980
支	-2981
初	-2982
连	-2983
兵	-2984
F	-2985
先	-2986
各	-2987
博	-2988
死	-2989
复	-2990
氏	-2991
举	-2992
命	-2993
示	-2994
纳	-2995
欧	-2996
医	-2997
戏	-2998
育	-2999
据	-3000
它	-3001
又	-3002
伯	-3003
标	-3004
武	-3005
营	-3006
究	-3007
条	-3008
阳	-3009
座	-3010
往	-3011
括	-3012
圣	-3013
故	-3014
饰	-3015
持	-3016
爱	-3017
离	-3018
环	-3019
U	-3020
未	-3021
亲	-3022
李	-3023
今	-3024
湾	-3025
反	-3026
八	-3027
果	-3028
刘	-3029
创	-3030
塔	-3031
录	-3032
苏	-3033
际	-3034
族	-3035
解	-3036
气	-3037
构	-3038
播	-3039
再	-3040
论	-3041
六	-3042
办	-3043
护	-3044
器	-3045
超	-3046
V	-3047
装	-3048
存	-3049
放	-3050
洛	-3051
吉	-3052
完	-3053
町	-3054
乡	-3055
庄	-3056
飞	-3057
筑	-3058
红	-3059
冠	-3060
商	-3061
威	-3062
置	-3063
见	-3064
质	-3065
木	-3066
老	-3067
强	-3068
我	-3069
汉	-3070
续	-3071
细	-3072
项	-3073
J	-3074
雷	-3075
且	-3076
致	-3077
功	-3078
即	-3079
居	-3080
曼	-3081
随	-3082
终	-3083
观	-3084
升	-3085
艺	-3086
境	-3087
攻	-3088
花	-3089
病	-3090
较	-3091
W	-3092
桥	-3093
七	-3094
母	-3095
画	-3096
许	-3097
给	-3098
黄	-3099
希	-3100
源	-3101
皇	-3102
速	-3103
密	-3104
堂	-3105
%	-3106
真	-3107
男	-3108
引	-3109
九	-3110
好	-3111
很	-3112
兴	-3113
土	-3114
令	-3115
落	-3116
诺	-3117
准	-3118
父	-3119
食	-3120
失	-3121
深	-3122
陆	-3123
题	-3124
样	-3125
积	-3126
客	-3127
济	-3128
景	-3129
每	-3130
具	-3131
哥	-3132
党	-3133
胜	-3134
那	-3135
亦	-3136
件	-3137
哈	-3138
郎	-3139
协	-3140
沙	-3141
火	-3142
宣	-3143
预	-3144
服	-3145
双	-3146
康	-3147
担	-3148
黑	-3149
备	-3150
推	-3151
早	-3152
瓦	-3153
规	-3154
容	-3155
百	-3156
易	-3157
街	-3158
言	-3159
域	-3160
副	-3161
助	-3162
萨	-3163
班	-3164
卫	-3165
派	-3166
争	-3167
除	-3168
青	-3169
己	-3170
权	-3171
贝	-3172
郡	-3173
修	-3174
排	-3175
野	-3176
评	-3177
杀	-3178
w	-3179
室	-3180
状	-3181
宁	-3182
词	-3183
温	-3184
鲁	-3185
塞	-3186
奇	-3187
投	-3188
宝	-3189
顿	-3190
堡	-3191
试	-3192
轮	-3193
供	-3194
技	-3195
继	-3196
防	-3197
败	-3198
鱼	-3199
射	-3200
森	-3201
另	-3202
围	-3203
查	-3204
甲	-3205
湖	-3206
勒	-3207
网	-3208
俄	-3209
配	-3210
半	-3211
份	-3212
授	-3213
考	-3214
调	-3215
陈	-3216
富	-3217
寺	-3218
降	-3219
层	-3220
增	-3221
测	-3222
独	-3223
恩	-3224
均	-3225
秀	-3226
伦	-3227
素	-3228
辑	-3229
何	-3230
旅	-3231
率	-3232
便	-3233
岁	-3234
志	-3235
泰	-3236
章	-3237
届	-3238
效	-3239
整	-3240
托	-3241
印	-3242
侧	-3243
止	-3244
移	-3245
着	-3246
盟	-3247
群	-3248
走	-3249
才	-3250
莱	-3251
席	-3252
祖	-3253
织	-3254
迪	-3255
告	-3256
问	-3257
载	-3258
感	-3259
牙	-3260
话	-3261
唱	-3262
步	-3263
拿	-3264
房	-3265
登	-3266
血	-3267
低	-3268
尾	-3269
留	-3270
让	-3271
瑞	-3272
响	-3273
范	-3274
夏	-3275
晋	-3276
求	-3277
退	-3278
嘉	-3279
案	-3280
农	-3281
念	-3282
附	-3283
ー	-3284
友	-3285
证	-3286
仅	-3287
叶	-3288
封	-3289
施	-3290
顺	-3291
礼	-3292
越	-3293
声	-3294
库	-3295
快	-3296
端	-3297
干	-3298
宫	-3299
仍	-3300
千	-3301
洋	-3302
松	-3303
占	-3304
毛	-3305
热	-3306
看	-3307
户	-3308
限	-3309
遗	-3310
闻	-3311
众	-3312
察	-3313
采	-3314
典	-3315
照	-3316
负	-3317
简	-3318
索	-3319
候	-3320
厅	-3321
姆	-3322
写	-3323
模	-3324
守	-3325
宋	-3326
例	-3327
药	-3328
价	-3329
像	-3330
延	-3331
永	-3332
店	-3333
久	-3334
谢	-3335
赵	-3336
余	-3337
想	-3338
极	-3339
坦	-3340
破	-3341
远	-3342
云	-3343
几	-3344
右	-3345
执	-3346
需	-3347
旧	-3348
显	-3349
左	-3350
思	-3351
酒	-3352
牌	-3353
精	-3354
丽	-3355
态	-3356
末	-3357
胞	-3358
佳	-3359
承	-3360
朗	-3361
却	-3362
皮	-3363
费	-3364
草	-3365
・	-3366
梅	-3367
船	-3368
征	-3369
望	-3370
突	-3371
唐	-3372
杯	-3373
象	-3374
换	-3375
楼	-3376
述	-3377
佛	-3378
注	-3379
乔	-3380
隆	-3381
临	-3382
请	-3383
埃	-3384
律	-3385
植	-3386
住	-3387
卢	-3388
弗	-3389
督	-3390
庆	-3391
春	-3392
蒙	-3393
乌	-3394
确	-3395
z	-3396
丹	-3397
况	-3398
停	-3399
架	-3400
银	-3401
津	-3402
满	-3403
归	-3404
丁	-3405
监	-3406
批	-3407
难	-3408
拥	-3409
蒂	-3410
责	-3411
乘	-3412
菌	-3413
频	-3414
婚	-3415
孙	-3416
控	-3417
背	-3418
荣	-3419
启	-3420
枪	-3421
亡	-3422
底	-3423
斗	-3424
料	-3425
吴	-3426
短	-3427
读	-3428
耶	-3429
毕	-3430
艾	-3431
辖	-3432
送	-3433
含	-3434
弟	-3435
杰	-3436
依	-3437
养	-3438
势	-3439
算	-3440
练	-3441
树	-3442
虫	-3443
轨	-3444
杨	-3445
Y	-3446
似	-3447
雄	-3448
伤	-3449
央	-3450
邦	-3451
消	-3452
朱	-3453
盖	-3454
莫	-3455
做	-3456
尚	-3457
把	-3458
票	-3459
菲	-3460
判	-3461
ン	-3462
顶	-3463
异	-3464
险	-3465
厂	-3466
若	-3467
谷	-3468
般	-3469
骨	-3470
微	-3471
断	-3472
梁	-3473
–	-3474
岩	-3475
御	-3476
麦	-3477
澳	-3478
藏	-3479
酸	-3480
x	-3481
你	-3482
喜	-3483
必	-3484
仁	-3485
卷	-3486
庭	-3487
弹	-3488
验	-3489
丝	-3490
毒	-3491
佐	-3492
压	-3493
摄	-3494
沿	-3495
阶	-3496
丰	-3497
役	-3498
屋	-3499
灵	-3500
虽	-3501
识	-3502
轻	-3503
岸	-3504
息	-3505
切	-3506
休	-3507
冲	-3508
夺	-3509
革	-3510
隶	-3511
良	-3512
兼	-3513
摩	-3514
核	-3515
绝	-3516
优	-3517
盛	-3518
冈	-3519
择	-3520
雅	-3521
齐	-3522
籍	-3523
鸟	-3524
の	-3525
邻	-3526
韩	-3527
善	-3528
宽	-3529
牛	-3530
追	-3531
旗	-3532
映	-3533
浦	-3534
杜	-3535
诗	-3536
宾	-3537
泉	-3538
溪	-3539
!	-3540
固	-3541
抗	-3542
束	-3543
玉	-3544
介	-3545
舞	-3546
序	-3547
股	-3548
凯	-3549
舰	-3550
迁	-3551
爵	-3552
绩	-3553
巨	-3554
差	-3555
杂	-3556
翰	-3557
臣	-3558
井	-3559
按	-3560
晚	-3561
藤	-3562
销	-3563
赫	-3564
震	-3565
码	-3566
害	-3567
眼	-3568
签	-3569
阴	-3570
昌	-3571
沃	-3572
烈	-3573
紫	-3574
习	-3575
尺	-3576
略	-3577
策	-3578
疗	-3579
免	-3580
妻	-3581
纽	-3582
阵	-3583
刻	-3584
劳	-3585
废	-3586
缺	-3587
警	-3588
雨	-3589
雪	-3590
什	-3591
适	-3592
遭	-3593
锦	-3594
姓	-3595
舍	-3596
刺	-3597
荷	-3598
骑	-3599
玩	-3600
胡	-3601
板	-3602
玛	-3603
黎	-3604
『	-3605
圆	-3606
娜	-3607
拍	-3608
概	-3609
购	-3610
X	-3611
译	-3612
钟	-3613
～	-3614
惠	-3615
拜	-3616
探	-3617
遇	-3618
』	-3619
夜	-3620
涯	-3621
聚	-3622
仙	-3623
审	-3624
帕	-3625
救	-3626
散	-3627
驻	-3628
君	-3629
损	-3630
健	-3631
油	-3632
补	-3633
洪	-3634
混	-3635
盘	-3636
碑	-3637
严	-3638
亿	-3639
值	-3640
欢	-3641
泽	-3642
症	-3643
络	-3644
蓝	-3645
兹	-3646
媒	-3647
巡	-3648
胎	-3649
售	-3650
敦	-3651
穿	-3652
赖	-3653
露	-3654
柳	-3655
逐	-3656
须	-3657
挥	-3658
智	-3659
池	-3660
训	-3661
唯	-3662
逃	-3663
绿	-3664
辆	-3665
"	-3666
予	-3667
替	-3668
甘	-3669
财	-3670
郑	-3671
顾	-3672
互	-3673
冰	-3674
圳	-3675
尽	-3676
析	-3677
赏	-3678
肯	-3679
芬	-3680
援	-3681
爆	-3682
篇	-3683
耳	-3684
输	-3685
乙	-3686
乱	-3687
刊	-3688
灰	-3689
苗	-3690
誉	-3691
贵	-3692
逝	-3693
昭	-3694
渐	-3695
讲	-3696
俱	-3697
址	-3698
柏	-3699
棒	-3700
魔	-3701
兄	-3702
扩	-3703
某	-3704
听	-3705
莎	-3706
吕	-3707
染	-3708
激	-3709
谋	-3710
径	-3711
忠	-3712
漫	-3713
竹	-3714
迷	-3715
找	-3716
途	-3717
ル	-3718
仪	-3719
减	-3720
奏	-3721
材	-3722
脉	-3723
莉	-3724
觉	-3725
齿	-3726
宇	-3727
殿	-3728
汗	-3729
甚	-3730
秘	-3731
豪	-3732
颁	-3733
?	-3734
ス	-3735
崎	-3736
敌	-3737
潮	-3738
灭	-3739
距	-3740
侯	-3741
罪	-3742
署	-3743
翼	-3744
霍	-3745
鲜	-3746
挑	-3747
横	-3748
矿	-3749
虎	-3750
庙	-3751
描	-3752
撤	-3753
j	-3754
假	-3755
刑	-3756
呈	-3757
峰	-3758
待	-3759
检	-3760
献	-3761
穆	-3762
魏	-3763
〈	-3764
借	-3765
毫	-3766
益	-3767
脚	-3768
龄	-3769
〉	-3770
企	-3771
佩	-3772
患	-3773
イ	-3774
梦	-3775
块	-3776
浙	-3777
秦	-3778
障	-3779
冷	-3780
剑	-3781
圈	-3782
幕	-3783
榜	-3784
羽	-3785
货	-3786
陵	-3787
戈	-3788
彰	-3789
私	-3790
袭	-3791
返	-3792
透	-3793
+	-3794
崇	-3795
毁	-3796
翻	-3797
鹿	-3798
徽	-3799
怀	-3800
渡	-3801
释	-3802
仔	-3803
招	-3804
菜	-3805
钱	-3806
'	-3807
凤	-3808
廷	-3809
弃	-3810
暴	-3811
炮	-3812
猫	-3813
课	-3814
跟	-3815
册	-3816
吸	-3817
彼	-3818
ト	-3819
仓	-3820
氧	-3821
辽	-3822
坛	-3823
牧	-3824
诸	-3825
乎	-3826
充	-3827
努	-3828
禄	-3829
幸	-3830
急	-3831
么	-3832
危	-3833
廉	-3834
抵	-3835
操	-3836
滨	-3837
灯	-3838
炸	-3839
镜	-3840
燕	-3841
申	-3842
讨	-3843
亨	-3844
剂	-3845
卖	-3846
尊	-3847
殖	-3848
皆	-3849
乳	-3850
冬	-3851
款	-3852
童	-3853
贡	-3854
赞	-3855
韦	-3856
乃	-3857
伸	-3858
烧	-3859
秋	-3860
茨	-3861
茶	-3862
迎	-3863
迹	-3864
避	-3865
够	-3866
妹	-3867
娱	-3868
寿	-3869
徒	-3870
洞	-3871
盐	-3872
禁	-3873
纲	-3874
脱	-3875
衣	-3876
霸	-3877
垒	-3878
综	-3879
莲	-3880
葡	-3881
蛊	-3882
俗	-3883
培	-3884
拔	-3885
狼	-3886
猪	-3887
蛋	-3888
诞	-3889
徐	-3890
斑	-3891
浅	-3892
缩	-3893
辅	-3894
扬	-3895
°	-3896
偏	-3897
幼	-3898
熙	-3899
味	-3900
孝	-3901
帮	-3902
捕	-3903
符	-3904
误	-3905
亮	-3906
奉	-3907
宜	-3908
瑟	-3909
赤	-3910
逊	-3911
邓	-3912
侍	-3913
恶	-3914
汤	-3915
犯	-3916
竞	-3917
访	-3918
锋	-3919
付	-3920
叫	-3921
览	-3922
买	-3923
伍	-3924
否	-3925
寻	-3926
牠	-3927
篮	-3928
糖	-3929
谈	-3930
侵	-3931
奈	-3932
彩	-3933
衰	-3934
静	-3935
匹	-3936
坏	-3937
坚	-3938
壤	-3939
缘	-3940
裁	-3941
剪	-3942
戴	-3943
贯	-3944
陷	-3945
雕	-3946
鬼	-3947
ラ	-3948
午	-3949
哲	-3950
奴	-3951
裂	-3952
闭	-3953
а	-3954
坐	-3955
扎	-3956
杉	-3957
琴	-3958
疾	-3959
繁	-3960
蔡	-3961
铜	-3962
腊	-3963
刚	-3964
液	-3965
累	-3966
绘	-3967
针	-3968
靠	-3969
孩	-3970
绍	-3971
贸	-3972
鳍	-3973
q	-3974
坡	-3975
晶	-3976
曹	-3977
棋	-3978
础	-3979
蛇	-3980
软	-3981
辞	-3982
颜	-3983
妇	-3984
掌	-3985
炎	-3986
窗	-3987
萄	-3988
融	-3989
默	-3990
墙	-3991
恋	-3992
暗	-3993
浪	-3994
祭	-3995
脂	-3996
郭	-3997
阻	-3998
驶	-3999
ア	-4000
墓	-4001
恐	-4002
昆	-4003
泛	-4004
珠	-4005
裔	-4006
跳	-4007
鹰	-4008
丘	-4009
伪	-4010
句	-4011
恢	-4012
栖	-4013
涉	-4014
潘	-4015
稳	-4016
覆	-4017
隔	-4018
颗	-4019
傅	-4020
召	-4021
困	-4022
埔	-4023
慕	-4024
犹	-4025
膜	-4026
币	-4027
暂	-4028
浮	-4029
董	-4030
驾	-4031
卑	-4032
呼	-4033
妮	-4034
宿	-4035
愿	-4036
纵	-4037
脑	-4038
额	-4039
う	-4040
估	-4041
尤	-4042
欣	-4043
い	-4044
ッ	-4045
倒	-4046
栗	-4047
疑	-4048
秒	-4049
芳	-4050
贤	-4051
辛	-4052
俊	-4053
坑	-4054
滑	-4055
钢	-4056
~	-4057
尖	-4058
抚	-4059
枚	-4060
歇	-4061
潜	-4062
诉	-4063
键	-4064
陶	-4065
桑	-4066
熊	-4067
Z	-4068
截	-4069
敏	-4070
旋	-4071
柯	-4072
档	-4073
藩	-4074
勋	-4075
惊	-4076
拆	-4077
旦	-4078
楚	-4079
汇	-4080
迅	-4081
鸡	-4082
柱	-4083
沟	-4084
纯	-4085
孕	-4086
彭	-4087
笔	-4088
苦	-4089
鳄	-4090
壁	-4091
肉	-4092
订	-4093
贾	-4094
阅	-4095
厚	-4096
坂	-4097
岭	-4098
慈	-4099
折	-4100
残	-4101
疫	-4102
癌	-4103
纸	-4104
芝	-4105
衡	-4106
诚	-4107
赠	-4108
允	-4109
叛	-4110
珍	-4111
赢	-4112
错	-4113
鼠	-4114
厘	-4115
狱	-4116
萧	-4117
讯	-4118
跨	-4119
辉	-4120
隐	-4121
享	-4122
孔	-4123
彦	-4124
箱	-4125
闽	-4126
е	-4127
リ	-4128
咸	-4129
姐	-4130
振	-4131
敬	-4132
浓	-4133
猎	-4134
碍	-4135
紧	-4136
肤	-4137
胚	-4138
靖	-4139
麻	-4140
伐	-4141
套	-4142
掉	-4143
汽	-4144
沉	-4145
罕	-4146
邀	-4147
阁	-4148
ク	-4149
丙	-4150
吃	-4151
拒	-4152
枝	-4153
桃	-4154
番	-4155
酶	-4156
零	-4157
亭	-4158
冻	-4159
卿	-4160
岗	-4161
殊	-4162
烟	-4163
粉	-4164
纹	-4165
葛	-4166
触	-4167
迫	-4168
龟	-4169
о	-4170
冯	-4171
勃	-4172
卵	-4173
孟	-4174
插	-4175
撰	-4176
邮	-4177
隧	-4178
な	-4179
旁	-4180
褐	-4181
倍	-4182
床	-4183
昂	-4184
磷	-4185
耐	-4186
跑	-4187
é	-4188
伟	-4189
伴	-4190
储	-4191
凡	-4192
勤	-4193
捷	-4194
晓	-4195
杆	-4196
沈	-4197
盾	-4198
答	-4199
腹	-4200
贺	-4201
餐	-4202
и	-4203
た	-4204
宅	-4205
宏	-4206
搭	-4207
玄	-4208
か	-4209
ん	-4210
シ	-4211
吏	-4212
宪	-4213
虚	-4214
谱	-4215
遣	-4216
Q	-4217
乏	-4218
熟	-4219
と	-4220
仑	-4221
凉	-4222
吾	-4223
岳	-4224
峡	-4225
慢	-4226
灌	-4227
灾	-4228
犬	-4229
详	-4230
伏	-4231
幻	-4232
晨	-4233
桂	-4234
肃	-4235
蜜	-4236
轴	-4237
铸	-4238
链	-4239
锡	-4240
饮	-4241
マ	-4242
ロ	-4243
勇	-4244
姊	-4245
嫁	-4246
崩	-4247
抑	-4248
泳	-4249
淘	-4250
矶	-4251
祠	-4252
跃	-4253
页	-4254
し	-4255
吞	-4256
娘	-4257
寒	-4258
桓	-4259
碱	-4260
厄	-4261
斐	-4262
芒	-4263
虑	-4264
贫	-4265
郊	-4266
ケ	-4267
タ	-4268
促	-4269
刀	-4270
垂	-4271
墨	-4272
屏	-4273
恒	-4274
绕	-4275
肥	-4276
衔	-4277
詹	-4278
丈	-4279
割	-4280
坎	-4281
宙	-4282
巧	-4283
弘	-4284
拓	-4285
撞	-4286
旭	-4287
梯	-4288
樱	-4289
笑	-4290
羊	-4291
螺	-4292
驱	-4293
鼓	-4294
&	-4295
冢	-4296
撒	-4297
朋	-4298
柔	-4299
汰	-4300
粗	-4301
腺	-4302
趣	-4303
→	-4304
偶	-4305
卓	-4306
怪	-4307
痛	-4308
硬	-4309
祥	-4310
赐	-4311
顷	-4312
く	-4313
ジ	-4314
叙	-4315
妃	-4316
涅	-4317
禅	-4318
舒	-4319
艘	-4320
诊	-4321
遂	-4322
с	-4323
丞	-4324
净	-4325
夕	-4326
弱	-4327
慧	-4328
晴	-4329
润	-4330
玻	-4331
璃	-4332
筹	-4333
荒	-4334
葬	-4335
邱	-4336
н	-4337
り	-4338
嗜	-4339
氢	-4340
砲	-4341
轰	-4342
忆	-4343
曰	-4344
淡	-4345
燃	-4346
碳	-4347
藻	-4348
蝎	-4349
贞	-4350
赴	-4351
遍	-4352
雌	-4353
р	-4354
カ	-4355
フ	-4356
冒	-4357
嘴	-4358
械	-4359
浩	-4360
碎	-4361
壳	-4362
寄	-4363
挂	-4364
猛	-4365
硕	-4366
菊	-4367
蝶	-4368
讷	-4369
铃	-4370
陕	-4371
る	-4372
凌	-4373
寮	-4374
杭	-4375
潭	-4376
琳	-4377
粒	-4378
袋	-4379
丧	-4380
凭	-4381
剩	-4382
卒	-4383
畔	-4384
粮	-4385
缓	-4386
茂	-4387
豆	-4388
鸣	-4389
鸿	-4390
к	-4391
キ	-4392
侦	-4393
匈	-4394
坝	-4395
塘	-4396
姬	-4397
尉	-4398
幅	-4399
欲	-4400
疏	-4401
脏	-4402
蜀	-4403
裕	-4404
辐	-4405
仰	-4406
劲	-4407
嗣	-4408
枢	-4409
柴	-4410
璋	-4411
租	-4412
蜂	-4413
袁	-4414
铺	-4415
颖	-4416
き	-4417
に	-4418
ド	-4419
凝	-4420
厦	-4421
摔	-4422
渔	-4423
煌	-4424
狐	-4425
绪	-4426
缅	-4427
聘	-4428
询	-4429
ら	-4430
兽	-4431
泥	-4432
洗	-4433
牵	-4434
迈	-4435
モ	-4436
レ	-4437
侨	-4438
堆	-4439
堪	-4440
崔	-4441
弦	-4442
桐	-4443
税	-4444
肌	-4445
脊	-4446
辰	-4447
迟	-4448
逢	-4449
醒	-4450
あ	-4451
姻	-4452
娃	-4453
既	-4454
泊	-4455
焦	-4456
薄	-4457
锁	-4458
函	-4459
幽	-4460
循	-4461
搬	-4462
棘	-4463
洁	-4464
湿	-4465
滥	-4466
瓢	-4467
闵	-4468
в	-4469
丸	-4470
仿	-4471
儒	-4472
彻	-4473
悟	-4474
拟	-4475
擎	-4476
榄	-4477
氨	-4478
汶	-4479
珊	-4480
琉	-4481
箭	-4482
鉴	-4483
鸭	-4484
バ	-4485
啡	-4486
圭	-4487
塑	-4488
尹	-4489
巢	-4490
扮	-4491
斤	-4492
琼	-4493
磨	-4494
粤	-4495
胆	-4496
胶	-4497
衍	-4498
赶	-4499
违	-4500
霜	-4501
こ	-4502
コ	-4503
劝	-4504
吧	-4505
咖	-4506
壮	-4507
宰	-4508
寸	-4509
尿	-4510
怒	-4511
株	-4512
溶	-4513
翌	-4514
胁	-4515
胺	-4516
艇	-4517
苑	-4518
贼	-4519
醇	-4520
鼻	-4521
庶	-4522
搜	-4523
梨	-4524
淑	-4525
瓜	-4526
祝	-4527
稿	-4528
穴	-4529
粹	-4530
耗	-4531
胸	-4532
オ	-4533
亩	-4534
仕	-4535
凸	-4536
叔	-4537
吐	-4538
喀	-4539
契	-4540
姜	-4541
宠	-4542
尝	-4543
抱	-4544
甜	-4545
碧	-4546
穷	-4547
纷	-4548
荐	-4549
谓	-4550
谥	-4551
谭	-4552
貌	-4553
铭	-4554
闲	-4555
雀	-4556
鲍	-4557
鳞	-4558
丛	-4559
乾	-4560
仲	-4561
倾	-4562
叉	-4563
孤	-4564
尘	-4565
甸	-4566
耀	-4567
肢	-4568
ズ	-4569
チ	-4570
テ	-4571
ポ	-4572
仇	-4573
债	-4574
励	-4575
斜	-4576
旨	-4577
旺	-4578
罚	-4579
肠	-4580
芸	-4581
蜥	-4582
贴	-4583
鼎	-4584
ā	-4585
т	-4586
巷	-4587
惟	-4588
橄	-4589
爷	-4590
睛	-4591
穗	-4592
郁	-4593
鹤	-4594
ち	-4595
は	-4596
ウ	-4597
ノ	-4598
囊	-4599
奔	-4600
姑	-4601
寨	-4602
廊	-4603
愈	-4604
抄	-4605
拼	-4606
斌	-4607
添	-4608
滚	-4609
濑	-4610
琪	-4611
矢	-4612
翠	-4613
酮	-4614
阔	-4615
阪	-4616
魂	-4617
ま	-4618
サ	-4619
プ	-4620
仆	-4621
偷	-4622
叠	-4623
妈	-4624
履	-4625
屯	-4626
弥	-4627
戒	-4628
扰	-4629
捐	-4630
掘	-4631
揭	-4632
狂	-4633
瑾	-4634
盗	-4635
苹	-4636
蒋	-4637
蚀	-4638
袖	-4639
谦	-4640
镰	-4641
闪	-4642
驳	-4643
さ	-4644
ム	-4645
坊	-4646
扶	-4647
淮	-4648
溃	-4649
狮	-4650
盆	-4651
稻	-4652
罢	-4653
耕	-4654
肖	-4655
肺	-4656
苍	-4657
荆	-4658
萝	-4659
诏	-4660
踪	-4661
钦	-4662
钻	-4663
‧	-4664
ナ	-4665
冕	-4666
吹	-4667
填	-4668
姚	-4669
婴	-4670
嫌	-4671
庚	-4672
忘	-4673
挖	-4674
敢	-4675
朴	-4676
疆	-4677
砂	-4678
祀	-4679
肿	-4680
腐	-4681
跌	-4682
锐	-4683
颇	-4684
饭	-4685
が	-4686
み	-4687
串	-4688
俘	-4689
卜	-4690
喷	-4691
坠	-4692
奎	-4693
娶	-4694
弯	-4695
忍	-4696
悬	-4697
扁	-4698
抢	-4699
抽	-4700
斩	-4701
朵	-4702
棱	-4703
矛	-4704
绳	-4705
腓	-4706
遥	-4707
ャ	-4708
伙	-4709
偿	-4710
匝	-4711
厢	-4712
屈	-4713
屠	-4714
悉	-4715
悦	-4716
押	-4717
梵	-4718
汝	-4719
湛	-4720
滩	-4721
畅	-4722
稣	-4723
肝	-4724
葵	-4725
お	-4726
伞	-4727
僧	-4728
刷	-4729
吨	-4730
坪	-4731
屿	-4732
庞	-4733
携	-4734
晖	-4735
柄	-4736
汀	-4737
玲	-4738
祐	-4739
腾	-4740
菩	-4741
辈	-4742
锽	-4743
陀	-4744
隋	-4745
雇	-4746
鲸	-4747
ィ	-4748
ニ	-4749
ビ	-4750
ュ	-4751
丑	-4752
奋	-4753
巫	-4754
忌	-4755
忽	-4756
怕	-4757
悲	-4758
惜	-4759
挝	-4760
措	-4761
旱	-4762
氯	-4763
漳	-4764
狄	-4765
绥	-4766
翔	-4767
肾	-4768
脸	-4769
茱	-4770
茵	-4771
茹	-4772
诱	-4773
邑	-4774
す	-4775
エ	-4776
ミ	-4777
垄	-4778
宴	-4779
扫	-4780
棕	-4781
泌	-4782
渠	-4783
煤	-4784
稍	-4785
蛮	-4786
袜	-4787
蹈	-4788
逆	-4789
遮	-4790
镑	-4791
饲	-4792
麟	-4793
て	-4794
ハ	-4795
ボ	-4796
ワ	-4797
侠	-4798
咨	-4799
坤	-4800
弄	-4801
忧	-4802
恨	-4803
恭	-4804
惨	-4805
拳	-4806
拾	-4807
挪	-4808
掩	-4809
摇	-4810
擅	-4811
汪	-4812
泡	-4813
溯	-4814
炭	-4815
硝	-4816
臀	-4817
莺	-4818
赋	-4819
践	-4820
л	-4821
っ	-4822
デ	-4823
メ	-4824
ョ	-4825
佑	-4826
吊	-4827
恰	-4828
惯	-4829
扣	-4830
攀	-4831
札	-4832
栏	-4833
毗	-4834
涵	-4835
渊	-4836
漠	-4837
爪	-4838
爸	-4839
茄	-4840
蒲	-4841
跋	-4842
轩	-4843
髓	-4844
й	-4845
で	-4846
ダ	-4847
劫	-4848
厝	-4849
吗	-4850
夷	-4851
嫡	-4852
拱	-4853
柬	-4854
栋	-4855
槐	-4856
浆	-4857
淳	-4858
烷	-4859
狗	-4860
瘤	-4861
茎	-4862
雍	-4863
鞋	-4864
ü	-4865
’	-4866
─	-4867
や	-4868
娅	-4869
宛	-4870
帅	-4871
帐	-4872
帽	-4873
庸	-4874
怨	-4875
披	-4876
掠	-4877
涂	-4878
滋	-4879
燥	-4880
牟	-4881
矮	-4882
竟	-4883
纤	-4884
舱	-4885
茅	-4886
荡	-4887
虾	-4888
颂	-4889
颈	-4890
м	-4891
つ	-4892
ガ	-4893
券	-4894
囚	-4895
堤	-4896
妙	-4897
寓	-4898
戌	-4899
澄	-4900
牲	-4901
甫	-4902
眠	-4903
硼	-4904
碰	-4905
绵	-4906
缝	-4907
翁	-4908
聪	-4909
臂	-4910
赌	-4911
逻	-4912
逼	-4913
颅	-4914
α	-4915
グ	-4916
喉	-4917
奶	-4918
姿	-4919
握	-4920
斥	-4921
杏	-4922
椎	-4923
淫	-4924
濒	-4925
爬	-4926
眉	-4927
祯	-4928
祸	-4929
贬	-4930
趋	-4931
辟	-4932
钧	-4933
阙	-4934
阮	-4935
颌	-4936
颠	-4937
麓	-4938
×	-4939
ا	-4940
け	-4941
じ	-4942
も	-4943
ヒ	-4944
卯	-4945
吻	-4946
夹	-4947
嫩	-4948
宦	-4949
尸	-4950
帖	-4951
廖	-4952
忙	-4953
挺	-4954
斋	-4955
昔	-4956
栓	-4957
毅	-4958
涌	-4959
稀	-4960
蒸	-4961
虹	-4962
辨	-4963
酿	-4964
骰	-4965
‘	-4966
を	-4967
凶	-4968
募	-4969
埋	-4970
奕	-4971
妥	-4972
寡	-4973
怎	-4974
惧	-4975
拨	-4976
暖	-4977
暨	-4978
殷	-4979
污	-4980
狩	-4981
狭	-4982
珀	-4983
瑙	-4984
碟	-4985
竭	-4986
缪	-4987
罐	-4988
芯	-4989
莞	-4990
蕙	-4991
蕾	-4992
贪	-4993
递	-4994
醮	-4995
釜	-4996
饿	-4997
驰	-4998
骗	-4999
鹅	-5000
鹫	-5001
á	-5002
だ	-5003
よ	-5004
乞	-5005
喙	-5006
噬	-5007
墅	-5008
岚	-5009
帆	-5010
庐	-5011
庠	-5012
慎	-5013
扑	-5014
捉	-5015
梧	-5016
椭	-5017
榆	-5018
沁	-5019
沛	-5020
沼	-5021
渗	-5022
湘	-5023
獒	-5024
畜	-5025
睡	-5026
磁	-5027
礁	-5028
竣	-5029
纬	-5030
胃	-5031
薛	-5032
誓	-5033
谜	-5034
酷	-5035
铎	-5036
闯	-5037
霞	-5038
飘	-5039
饼	-5040
#	-5041
パ	-5042
哀	-5043
垣	-5044
岐	-5045
廿	-5046
恕	-5047
惑	-5048
摆	-5049
撑	-5050
漏	-5051
祈	-5052
窝	-5053
缔	-5054
艳	-5055
虏	-5056
蜿	-5057
襄	-5058
谅	-5059
谣	-5060
遵	-5061
酬	-5062
醉	-5063
雾	-5064
饶	-5065
驯	-5066
ʁ	-5067
д	-5068
め	-5069
れ	-5070
冥	-5071
卸	-5072
厉	-5073
哭	-5074
埤	-5075
奠	-5076
婆	-5077
怡	-5078
愤	-5079
抓	-5080
拐	-5081
挤	-5082
杵	-5083
椒	-5084
橙	-5085
橡	-5086
沧	-5087
渝	-5088
甄	-5089
禾	-5090
糕	-5091
绑	-5092
绒	-5093
肩	-5094
腔	-5095
腿	-5096
舟	-5097
芙	-5098
蛙	-5099
蜒	-5100
蝠	-5101
诛	-5102
贩	-5103
躲	-5104
辩	-5105
邪	-5106
铠	-5107
镶	-5108
雁	-5109
〜	-5110
セ	-5111
ブ	-5112
伽	-5113
侣	-5114
兆	-5115
删	-5116
刽	-5117
卧	-5118
厌	-5119
扇	-5120
撃	-5121
昏	-5122
桨	-5123
槃	-5124
滕	-5125
瀑	-5126
炼	-5127
稽	-5128
绎	-5129
耿	-5130
膝	-5131
芽	-5132
薪	-5133
薮	-5134
虞	-5135
蝴	-5136
豫	-5137
趁	-5138
辣	-5139
逮	-5140
骚	-5141
í	-5142
ь	-5143
€	-5144
そ	-5145
丢	-5146
亥	-5147
佣	-5148
佥	-5149
匠	-5150
咏	-5151
妓	-5152
妾	-5153
屡	-5154
崖	-5155
怜	-5156
扭	-5157
挡	-5158
旬	-5159
栽	-5160
沪	-5161
泪	-5162
涛	-5163
滴	-5164
烂	-5165
烤	-5166
瑶	-5167
皓	-5168
竖	-5169
舌	-5170
艮	-5171
萃	-5172
薯	-5173
蟾	-5174
讽	-5175
谨	-5176
赣	-5177
踏	-5178
踢	-5179
逸	-5180
邸	-5181
鄂	-5182
雯	-5183
霏	-5184
黏	-5185
黛	-5186
ツ	-5187
俞	-5188
勘	-5189
厨	-5190
崛	-5191
戊	-5192
暑	-5193
棉	-5194
棍	-5195
歧	-5196
歼	-5197
炳	-5198
焕	-5199
牺	-5200
瓷	-5201
畏	-5202
疯	-5203
窦	-5204
粘	-5205
缴	-5206
肇	-5207
肛	-5208
腰	-5209
蓄	-5210
蔗	-5211
蔬	-5212
赔	-5213
趾	-5214
轶	-5215
阜	-5216
霉	-5217
骼	-5218
ō	-5219
ل	-5220
え	-5221
ホ	-5222
倚	-5223
削	-5224
勾	-5225
匡	-5226
咒	-5227
哪	-5228
喵	-5229
垩	-5230
壬	-5231
婷	-5232
媛	-5233
尧	-5234
弓	-5235
悔	-5236
悠	-5237
拖	-5238
拯	-5239
擦	-5240
橘	-5241
氟	-5242
汁	-5243
淋	-5244
溉	-5245
漂	-5246
痕	-5247
祁	-5248
祷	-5249
羟	-5250
芹	-5251
莽	-5252
菱	-5253
蓬	-5254
蕃	-5255
蕨	-5256
貂	-5257
迦	-5258
邛	-5259
邹	-5260
钙	-5261
锅	-5262
闸	-5263
陪	-5264
颚	-5265
骸	-5266
à	-5267
μ	-5268
せ	-5269
ひ	-5270
ァ	-5271
侄	-5272
叹	-5273
喇	-5274
喝	-5275
噪	-5276
坞	-5277
坟	-5278
奚	-5279
奸	-5280
妖	-5281
婿	-5282
孚	-5283
寂	-5284
怖	-5285
戚	-5286
捞	-5287
擒	-5288
梓	-5289
沽	-5290
泾	-5291
溜	-5292
爽	-5293
狸	-5294
獾	-5295
畴	-5296
盈	-5297
矩	-5298
翊	-5299
芦	-5300
茜	-5301
荀	-5302
荔	-5303
谐	-5304
邵	-5305
酰	-5306
钩	-5307
隙	-5308
霄	-5309
鞍	-5310
饱	-5311
鲈	-5312
ä	-5313
ö	-5314
俾	-5315
催	-5316
僚	-5317
凹	-5318
劾	-5319
匀	-5320
咬	-5321
哺	-5322
喻	-5323
堕	-5324
塌	-5325
墟	-5326
幡	-5327
懿	-5328
抛	-5329
摘	-5330
敷	-5331
框	-5332
泄	-5333
漆	-5334
焚	-5335
砖	-5336
秩	-5337
笨	-5338
筒	-5339
簿	-5340
糊	-5341
芜	-5342
苯	-5343
苻	-5344
莹	-5345
讼	-5346
谁	-5347
逾	-5348
阀	-5349
陨	-5350
鞭	-5351
韵	-5352
è	-5353
ɛ	-5354
г	-5355
з	-5356
у	-5357
ч	-5358
ы	-5359
ご	-5360
ゅ	-5361
ょ	-5362
ェ	-5363
剥	-5364
呎	-5365
嘌	-5366
堵	-5367
岑	-5368
嵌	-5369
庇	-5370
彤	-5371
搞	-5372
柿	-5373
棚	-5374
榕	-5375
樟	-5376
殉	-5377
氛	-5378
汕	-5379
汾	-5380
涨	-5381
淄	-5382
烯	-5383
猴	-5384
畸	-5385
畿	-5386
癸	-5387
硫	-5388
祚	-5389
秉	-5390
笛	-5391
纂	-5392
肆	-5393
脆	-5394
荫	-5395
谊	-5396
谟	-5397
郝	-5398
酱	-5399
钝	-5400
钠	-5401
铳	-5402
霆	-5403
馨	-5404
骤	-5405
鹏	-5406
š	-5407
ɔ	-5408
̃	-5409
К	-5410
م	-5411
■	-5412
ろ	-5413
わ	-5414
侏	-5415
剌	-5416
劣	-5417
匾	-5418
厥	-5419
叱	-5420
呤	-5421
咤	-5422
唤	-5423
団	-5424
娠	-5425
孢	-5426
幌	-5427
慰	-5428
戎	-5429
拦	-5430
摧	-5431
擢	-5432
朔	-5433
枋	-5434
枫	-5435
槽	-5436
泷	-5437
浸	-5438
瑜	-5439
硅	-5440
硒	-5441
磐	-5442
笃	-5443
筋	-5444
筝	-5445
绮	-5446
胰	-5447
舅	-5448
舆	-5449
蚁	-5450
裘	-5451
迭	-5452
酋	-5453
魅	-5454
鲤	-5455
́	-5456
ρ	-5457
ς	-5458
б	-5459
ي	-5460
ザ	-5461
ピ	-5462
ベ	-5463
凰	-5464
匙	-5465
呛	-5466
唇	-5467
垦	-5468
垫	-5469
堀	-5470
妊	-5471
妨	-5472
峨	-5473
幢	-5474
惩	-5475
愁	-5476
戸	-5477
梗	-5478
棠	-5479
楠	-5480
欠	-5481
歙	-5482
泗	-5483
淤	-5484
溴	-5485
猩	-5486
珪	-5487
眶	-5488
磅	-5489
窃	-5490
窄	-5491
糙	-5492
聊	-5493
肱	-5494
胀	-5495
膛	-5496
豹	-5497
饥	-5498
髻	-5499
魁	-5500
ε	-5501
і	-5502
ر	-5503
س	-5504
ن	-5505
ォ	-5506
倡	-5507
冀	-5508
刈	-5509
刹	-5510
剖	-5511
呢	-5512
哨	-5513
啸	-5514
嘱	-5515
娄	-5516
孵	-5517
寇	-5518
屑	-5519
岙	-5520
徙	-5521
懂	-5522
懦	-5523
抬	-5524
拘	-5525
敲	-5526
曙	-5527
柚	-5528
桶	-5529
欺	-5530
沂	-5531
沾	-5532
泼	-5533
浚	-5534
淀	-5535
烽	-5536
牢	-5537
猜	-5538
瑰	-5539
璧	-5540
禧	-5541
竿	-5542
笠	-5543
糸	-5544
羌	-5545
翡	-5546
肪	-5547
胖	-5548
臭	-5549
艰	-5550
苇	-5551
蜴	-5552
诈	-5553
贿	-5554
赑	-5555
跆	-5556
酥	-5557
钉	-5558
钊	-5559
锌	-5560
骏	-5561
鸠	-5562
鸽	-5563
<	-5564
ο	-5565
י	-5566
ל	-5567
☆	-5568
亏	-5569
傲	-5570
兔	-5571
勉	-5572
叩	-5573
夔	-5574
夭	-5575
夸	-5576
寅	-5577
屭	-5578
庵	-5579
挫	-5580
敕	-5581
晃	-5582
曝	-5583
栈	-5584
梭	-5585
棺	-5586
椅	-5587
樊	-5588
歴	-5589
毙	-5590
毯	-5591
沱	-5592
泣	-5593
溧	-5594
濠	-5595
灿	-5596
焉	-5597
熹	-5598
玫	-5599
琏	-5600
琵	-5601
瓶	-5602
睹	-5603
瞎	-5604
砌	-5605
笼	-5606
糟	-5607
纠	-5608
纺	-5609
羚	-5610
虔	-5611
蚣	-5612
蜈	-5613
褒	-5614
谬	-5615
贷	-5616
赘	-5617
酯	-5618
酵	-5619
醚	-5620
铅	-5621
铝	-5622
阐	-5623
鸦	-5624
±	-5625
ó	-5626
А	-5627
〔	-5628
〕	-5629
ざ	-5630
ず	-5631
ば	-5632
ゃ	-5633
ネ	-5634
哉	-5635
唑	-5636
啊	-5637
啤	-5638
墩	-5639
妆	-5640
岔	-5641
廓	-5642
廪	-5643
弧	-5644
彝	-5645
悯	-5646
悼	-5647
惹	-5648
憾	-5649
拇	-5650
旻	-5651
朽	-5652
槟	-5653
沅	-5654
沐	-5655
浴	-5656
淆	-5657
淝	-5658
滤	-5659
濂	-5660
瀛	-5661
瀬	-5662
炉	-5663
猿	-5664
瑕	-5665
瑚	-5666
瘟	-5667
癫	-5668
瞿	-5669
矽	-5670
穹	-5671
窑	-5672
罹	-5673
胤	-5674
胥	-5675
膏	-5676
膨	-5677
舶	-5678
茗	-5679
茫	-5680
虐	-5681
蟹	-5682
裴	-5683
觅	-5684
谍	-5685
赎	-5686
赚	-5687
锯	-5688
锹	-5689
闷	-5690
闹	-5691
陂	-5692
靼	-5693
鞑	-5694
驿	-5695
鸪	-5696
鹧	-5697
>	-5698
ò	-5699
ú	-5700
П	-5701
ц	-5702
ש	-5703
※	-5704
ふ	-5705
ほ	-5706
ゲ	-5707
佗	-5708
俟	-5709
俭	-5710
兖	-5711
吓	-5712
吟	-5713
吡	-5714
圾	-5715
垃	-5716
埠	-5717
堺	-5718
塭	-5719
奢	-5720
嫂	-5721
嫔	-5722
岂	-5723
峙	-5724
峻	-5725
徳	-5726
恳	-5727
愚	-5728
抹	-5729
揆	-5730
搏	-5731
昙	-5732
桌	-5733
桢	-5734
棣	-5735
檀	-5736
檐	-5737
氮	-5738
沢	-5739
泸	-5740
洒	-5741
浏	-5742
浑	-5743
渤	-5744
渭	-5745
溢	-5746
潟	-5747
濮	-5748
烦	-5749
煦	-5750
瓣	-5751
甥	-5752
睦	-5753
碗	-5754
祇	-5755
禽	-5756
簧	-5757
粪	-5758
纱	-5759
缚	-5760
缠	-5761
缮	-5762
翅	-5763
腥	-5764
膳	-5765
舔	-5766
莘	-5767
蔓	-5768
蛩	-5769
裸	-5770
诬	-5771
谏	-5772
谕	-5773
赦	-5774
轧	-5775
辱	-5776
邨	-5777
郐	-5778
鄞	-5779
锂	-5780
镐	-5781
霖	-5782
骆	-5783
骥	-5784
鬣	-5785
鳗	-5786
=	-5787
ë	-5788
β	-5789
σ	-5790
С	-5791
х	-5792
ج	-5793
د	-5794
•	-5795
★	-5796
【	-5797
】	-5798
ぎ	-5799
ソ	-5800
乒	-5801
乓	-5802
俸	-5803
倩	-5804
僵	-5805
冶	-5806
凿	-5807
匪	-5808
卦	-5809
呆	-5810
咽	-5811
哇	-5812
嘲	-5813
埼	-5814
壹	-5815
妄	-5816
姪	-5817
婉	-5818
孺	-5819
嵴	-5820
巳	-5821
広	-5822
弊	-5823
恤	-5824
恪	-5825
恺	-5826
慌	-5827
懋	-5828
扒	-5829
挽	-5830
搁	-5831
晕	-5832
枯	-5833
榉	-5834
沦	-5835
滞	-5836
澜	-5837
炒	-5838
烹	-5839
牡	-5840
琛	-5841
疲	-5842
瘾	-5843
碓	-5844
禺	-5845
筠	-5846
绰	-5847
羞	-5848
羡	-5849
羲	-5850
膊	-5851
芮	-5852
苔	-5853
苟	-5854
茑	-5855
萌	-5856
萎	-5857
萼	-5858
蕉	-5859
薇	-5860
藔	-5861
蠢	-5862
衷	-5863
谎	-5864
跖	-5865
迄	-5866
鑫	-5867
钥	-5868
钮	-5869
钰	-5870
陛	-5871
雉	-5872
雏	-5873
颍	-5874
鹊	-5875
黒	-5876
黔	-5877
É	-5878
ū	-5879
η	-5880
ι	-5881
ν	-5882
ב	-5883
מ	-5884
ب	-5885
−	-5886
ど	-5887
ゆ	-5888
ゼ	-5889
ヴ	-5890
佚	-5891
俩	-5892
傍	-5893
兀	-5894
剿	-5895
卤	-5896
噶	-5897
壕	-5898
姨	-5899
媚	-5900
寰	-5901
嵯	-5902
巩	-5903
帜	-5904
悚	-5905
捧	-5906
昱	-5907
晰	-5908
暇	-5909
暹	-5910
枣	-5911
柜	-5912
榴	-5913
樽	-5914
沥	-5915
泻	-5916
浊	-5917
浔	-5918
涩	-5919
潼	-5920
焘	-5921
熔	-5922
琅	-5923
璇	-5924
甾	-5925
畠	-5926
疹	-5927
痫	-5928
盒	-5929
盲	-5930
睐	-5931
睽	-5932
睾	-5933
瞬	-5934
窟	-5935
簷	-5936
紊	-5937
纶	-5938
绞	-5939
绫	-5940
缀	-5941
缕	-5942
耘	-5943
耻	-5944
聆	-5945
脇	-5946
膀	-5947
芭	-5948
苞	-5949
菠	-5950
蔑	-5951
蚌	-5952
蛤	-5953
诫	-5954
诵	-5955
酉	-5956
钞	-5957
锣	-5958
锥	-5959
锻	-5960
闰	-5961
阇	-5962
饷	-5963
驸	-5964
驹	-5965
鳃	-5966
鳜	-5967
$	-5968
â	-5969
ê	-5970
ē	-5971
ı	-5972
γ	-5973
Н	-5974
я	-5975
□	-5976
ね	-5977
べ	-5978
ヤ	-5979
ヨ	-5980
乍	-5981
仗	-5982
侈	-5983
兑	-5984
劭	-5985
勿	-5986
喊	-5987
嘛	-5988
嘻	-5989
娩	-5990
孀	-5991
岠	-5992
崄	-5993
巽	-5994
彬	-5995
怯	-5996
恼	-5997
戾	-5998
抒	-5999
抖	-6000
揽	-6001
朕	-6002
杖	-6003
楷	-6004
氦	-6005
渚	-6006
潞	-6007
焰	-6008
瑛	-6009
疼	-6010
痒	-6011
痴	-6012
皂	-6013
砍	-6014
砚	-6015
禹	-6016
稔	-6017
稷	-6018
筛	-6019
筱	-6020
篡	-6021
粟	-6022
绣	-6023
缆	-6024
罩	-6025
羁	-6026
耸	-6027
舖	-6028
舜	-6029
苷	-6030
菁	-6031
萱	-6032
蔺	-6033
蕴	-6034
蝇	-6035
蟆	-6036
衞	-6037
裙	-6038
裳	-6039
裹	-6040
襟	-6041
讳	-6042
讶	-6043
诘	-6044
诰	-6045
诹	-6046
赈	-6047
跗	-6048
躯	-6049
迩	-6050
邺	-6051
郢	-6052
酐	-6053
醛	-6054
釉	-6055
鉄	-6056
铲	-6057
関	-6058
陇	-6059
隼	-6060
靴	-6061
韶	-6062
顽	-6063
颉	-6064
馈	-6065
馒	-6066
骂	-6067
骈	-6068
鹞	-6069
黜	-6070
우	-6071
ç	-6072
č	-6073
ɑ	-6074
ά	-6075
Б	-6076
ק	-6077
و	-6078
ิ	-6079
་	-6080
―	-6081
↑	-6082
ぐ	-6083
げ	-6084
ぬ	-6085
む	-6086
ヌ	-6087
乂	-6088
伺	-6089
俏	-6090
俯	-6091
倪	-6092
偕	-6093
僖	-6094
凄	-6095
凑	-6096
吵	-6097
咀	-6098
咙	-6099
啦	-6100
嘘	-6101
圃	-6102
壶	-6103
妍	-6104
妒	-6105
孖	-6106
実	-6107
崭	-6108
弼	-6109
彗	-6110
愧	-6111
憩	-6112
扳	-6113
挣	-6114
掷	-6115
揉	-6116
摊	-6117
敖	-6118
於	-6119
旷	-6120
昊	-6121
枳	-6122
柑	-6123
梳	-6124
榎	-6125
歪	-6126
毓	-6127
毘	-6128
汴	-6129
涕	-6130
淇	-6131
溥	-6132
潍	-6133
澡	-6134
灼	-6135
炽	-6136
煞	-6137
畑	-6138
瘦	-6139
盎	-6140
睿	-6141
祂	-6142
祜	-6143
篙	-6144
簇	-6145
籽	-6146
绅	-6147
绊	-6148
缉	-6149
缯	-6150
翎	-6151
翳	-6152
聂	-6153
肚	-6154
肽	-6155
脲	-6156
腕	-6157
臧	-6158
臼	-6159
荧	-6160
莪	-6161
蓟	-6162
薰	-6163
藉	-6164
藓	-6165
虱	-6166
蛾	-6167
蝙	-6168
衢	-6169
诃	-6170
诩	-6171
蹄	-6172
躁	-6173
躺	-6174
轭	-6175
逗	-6176
邢	-6177
鄙	-6178
钓	-6179
钵	-6180
钾	-6181
铨	-6182
阕	-6183
陡	-6184
韧	-6185
饪	-6186
鲆	-6187
鲷	-6188
鸾	-6189
龚	-6190
원	-6191
[	-6192
]	-6193
ñ	-6194
ø	-6195
û	-6196
ć	-6197
Đ	-6198
ī	-6199
ʃ	-6200
̍	-6201
λ	-6202
В	-6203
ж	-6204
ш	-6205
ּ	-6206
ה	-6207
ר	-6208
ة	-6209
ั	-6210
ぱ	-6211
ぼ	-6212
ギ	-6213
ゴ	-6214
ペ	-6215
丕	-6216
仮	-6217
伎	-6218
佰	-6219
倭	-6220
僻	-6221
冗	-6222
冤	-6223
凋	-6224
刁	-6225
劈	-6226
匆	-6227
吋	-6228
咱	-6229
咲	-6230
喂	-6231
喃	-6232
喘	-6233
囡	-6234
埗	-6235
堰	-6236
増	-6237
墘	-6238
娇	-6239
娴	-6240
宵	-6241
嵩	-6242
巾	-6243
帙	-6244
彪	-6245
忻	-6246
悍	-6247
惇	-6248
愉	-6249
戦	-6250
戳	-6251
拙	-6252
挛	-6253
挟	-6254
捡	-6255
捣	-6256
摞	-6257
撕	-6258
敛	-6259
斉	-6260
斧	-6261
昉	-6262
昕	-6263
昧	-6264
昨	-6265
晏	-6266
晒	-6267
暁	-6268
暧	-6269
暱	-6270
曜	-6271
曦	-6272
杠	-6273
栅	-6274
桜	-6275
梶	-6276
棵	-6277
椇	-6278
楽	-6279
槌	-6280
槎	-6281
歉	-6282
歳	-6283
殴	-6284
洙	-6285
洼	-6286
浜	-6287
涡	-6288
涧	-6289
涿	-6290
淹	-6291
湟	-6292
溟	-6293
滇	-6294
潇	-6295
炫	-6296
焊	-6297
煜	-6298
煮	-6299
犀	-6300
猗	-6301
珐	-6302
琐	-6303
琦	-6304
琰	-6305
瑱	-6306
痉	-6307
痹	-6308
瘀	-6309
皱	-6310
盔	-6311
瞳	-6312
磡	-6313
稚	-6314
窜	-6315
竺	-6316
絜	-6317
絮	-6318
绯	-6319
绾	-6320
翘	-6321
肋	-6322
肘	-6323
肜	-6324
肴	-6325
脓	-6326
臾	-6327
苓	-6328
苛	-6329
菇	-6330
萍	-6331
萤	-6332
葫	-6333
蕈	-6334
薨	-6335
蚓	-6336
蛛	-6337
蜡	-6338
蝉	-6339
蟠	-6340
蟨	-6341
褶	-6342
诅	-6343
谌	-6344
豊	-6345
豚	-6346
账	-6347
贮	-6348
贲	-6349
赂	-6350
辗	-6351
迢	-6352
邈	-6353
郦	-6354
酌	-6355
酗	-6356
钳	-6357
钺	-6358
镒	-6359
阡	-6360
阱	-6361
陋	-6362
陌	-6363
隅	-6364
隈	-6365
靡	-6366
靶	-6367
颊	-6368
驮	-6369
骄	-6370
骊	-6371
鲑	-6372
鸢	-6373
鸥	-6374
鹦	-6375
鹭	-6376
麒	-6377
麾	-6378
영	-6379
이	-6380
}	-6381
ß	-6382
ô	-6383
÷	-6384
ž	-6385
ơ	-6386
ə	-6387
ː	-6388
δ	-6389
τ	-6390
ό	-6391
Г	-6392
Д	-6393
п	-6394
ַ	-6395
ָ	-6396
א	-6397
ع	-6398
ك	-6399
ی	-6400
ा	-6401
น	-6402
า	-6403
ễ	-6404
○	-6405
々	-6406
づ	-6407
び	-6408
ぶ	-6409
へ	-6410
䴕	-6411
亘	-6412
佞	-6413
侗	-6414
冼	-6415
刃	-6416
劼	-6417
匿	-6418
叡	-6419
吠	-6420
咐	-6421
哑	-6422
哮	-6423
啮	-6424
囱	-6425
埭	-6426
塱	-6427
塾	-6428
奂	-6429
姉	-6430
姫	-6431
娟	-6432
娥	-6433
婢	-6434
嫉	-6435
宸	-6436
専	-6437
尻	-6438
岷	-6439
峠	-6440
峥	-6441
峦	-6442
崧	-6443
巅	-6444
帘	-6445
帛	-6446
徊	-6447
徘	-6448
惮	-6449
惰	-6450
惶	-6451
懒	-6452
戍	-6453
戮	-6454
扈	-6455
拂	-6456
挠	-6457
敞	-6458
昶	-6459
昺	-6460
晦	-6461
杞	-6462
枱	-6463
桡	-6464
椋	-6465
椴	-6466
榔	-6467
橼	-6468
氐	-6469
汐	-6470
汛	-6471
淸	-6472
渕	-6473
渥	-6474
渴	-6475
湍	-6476
滔	-6477
滢	-6478
漕	-6479
澈	-6480
澧	-6481
濡	-6482
炀	-6483
炖	-6484
炜	-6485
烛	-6486
烨	-6487
焙	-6488
煎	-6489
爹	-6490
犁	-6491
猝	-6492
猷	-6493
珂	-6494
珣	-6495
琥	-6496
琶	-6497
璟	-6498
甬	-6499
疟	-6500
痺	-6501
瘙	-6502
皋	-6503
盂	-6504
眩	-6505
眺	-6506
瞰	-6507
瞻	-6508
矣	-6509
矫	-6510
砸	-6511
砻	-6512
碲	-6513
磊	-6514
祟	-6515
禀	-6516
秆	-6517
稃	-6518
稠	-6519
窘	-6520
窠	-6521
竜	-6522
筿	-6523
篾	-6524
粿	-6525
総	-6526
繙	-6527
绛	-6528
缸	-6529
罔	-6530
耍	-6531
胪	-6532
胱	-6533
脾	-6534
腱	-6535
腻	-6536
舵	-6537
苳	-6538
茧	-6539
荳	-6540
菅	-6541
菏	-6542
葱	-6543
蒜	-6544
蔚	-6545
蔴	-6546
蕊	-6547
蘑	-6548
蚕	-6549
蚝	-6550
蚯	-6551
蜓	-6552
蜗	-6553
蜻	-6554
袍	-6555
裤	-6556
讥	-6557
诡	-6558
谒	-6559
跛	-6560
踝	-6561
踩	-6562
辍	-6563
逍	-6564
逵	-6565
遴	-6566
酚	-6567
醯	-6568
闺	-6569
阎	-6570
阯	-6571
顼	-6572
颐	-6573
颓	-6574
駅	-6575
驷	-6576
骁	-6577
骠	-6578
髁	-6579
鲡	-6580
鲫	-6581
鳅	-6582
鳌	-6583
鳕	-6584
鹀	-6585
鹟	-6586
대	-6587
서	-6588
수	-6589
장	-6590
정	-6591
지	-6592
𪸩	-6593
𪻺	-6594
Ö	-6595
æ	-6596
ù	-6597
ė	-6598
ğ	-6599
ư	-6600
ɡ	-6601
ʒ	-6602
ˈ	-6603
Κ	-6604
ί	-6605
π	-6606
З	-6607
И	-6608
М	-6609
Т	-6610
Х	-6611
ф	-6612
ր	-6613
ְ	-6614
ֶ	-6615
ו	-6616
כ	-6617
ت	-6618
ز	-6619
ق	-6620
र	-6621
ง	-6622
်	-6623
ệ	-6624
←	-6625
♥	-6626
ぜ	-6627
ぞ	-6628
伶	-6629
佯	-6630
侮	-6631
俐	-6632
俚	-6633
俣	-6634
俨	-6635
倘	-6636
凳	-6637
刮	-6638
勖	-6639
匍	-6640
匣	-6641
卉	-6642
厮	-6643
吁	-6644
吩	-6645
哗	-6646
哟	-6647
啃	-6648
啶	-6649
営	-6650
嗅	-6651
嘶	-6652
圩	-6653
垠	-6654
垢	-6655
堇	-6656
堑	-6657
塩	-6658
奭	-6659
妤	-6660
妲	-6661
婪	-6662
嬴	-6663
宥	-6664
対	-6665
嶋	-6666
弑	-6667
彧	-6668
忏	-6669
忱	-6670
怠	-6671
恬	-6672
恵	-6673
悪	-6674
慨	-6675
憨	-6676
懈	-6677
戛	-6678
扔	-6679
扼	-6680
拭	-6681
掖	-6682
掬	-6683
掳	-6684
掾	-6685
撮	-6686
攘	-6687
旸	-6688
昰	-6689
晤	-6690
暮	-6691
枕	-6692
枹	-6693
柊	-6694
栉	-6695
栎	-6696
栢	-6697
栾	-6698
桁	-6699
梢	-6700
椿	-6701
楂	-6702
楣	-6703
榈	-6704
榻	-6705
様	-6706
権	-6707
殡	-6708
毋	-6709
汲	-6710
沤	-6711
沸	-6712
泮	-6713
泵	-6714
洮	-6715
浇	-6716
涟	-6717
涤	-6718
涪	-6719
溺	-6720
漩	-6721
潢	-6722
澎	-6723
濬	-6724
灶	-6725
炬	-6726
烃	-6727
烙	-6728
熬	-6729
燮	-6730
爚	-6731
狙	-6732
狠	-6733
玮	-6734
珉	-6735
琜	-6736
琨	-6737
瑠	-6738
瑯	-6739
瓯	-6740
皑	-6741
皖	-6742
睁	-6743
瞄	-6744
瞭	-6745
碘	-6746
磺	-6747
祎	-6748
笺	-6749
箕	-6750
箫	-6751
篱	-6752
粱	-6753
糯	-6754
経	-6755
绶	-6756
绽	-6757
翩	-6758
胛	-6759
胫	-6760
腌	-6761
腭	-6762
舷	-6763
芎	-6764
荃	-6765
荥	-6766
莆	-6767
葆	-6768
蒨	-6769
蒴	-6770
蓉	-6771
蓓	-6772
蔷	-6773
蚂	-6774
蛹	-6775
蜕	-6776
蜘	-6777
蝮	-6778
蠡	-6779
衙	-6780
衫	-6781
袒	-6782
褛	-6783
觐	-6784
诠	-6785
诲	-6786
谴	-6787
豁	-6788
豺	-6789
贻	-6790
趟	-6791
蹶	-6792
轼	-6793
辜	-6794
迥	-6795
邕	-6796
邯	-6797
郷	-6798
酢	-6799
醋	-6800
銮	-6801
铉	-6802
铱	-6803
锚	-6804
镀	-6805
镍	-6806
闾	-6807
阑	-6808
隘	-6809
雳	-6810
霰	-6811
霹	-6812
鞠	-6813
颤	-6814
飓	-6815
飨	-6816
饬	-6817
魄	-6818
鲴	-6819
鲽	-6820
鳐	-6821
鸨	-6822
鸮	-6823
鸳	-6824
鹪	-6825
龈	-6826
김	-6827
나	-6828
년	-6829
도	-6830
리	-6831
민	-6832
박	-6833
배	-6834
부	-6835
성	-6836
신	-6837
에	-6838
하	-6839
ł	-6840
ś	-6841
ʉ	-6842
ʼ	-6843
ʿ	-6844
̚	-6845
Μ	-6846
Ν	-6847
έ	-6848
ή	-6849
θ	-6850
κ	-6851
υ	-6852
χ	-6853
ω	-6854
ύ	-6855
Р	-6856
Ф	-6857
ё	-6858
ե	-6859
ո	-6860
ח	-6861
ס	-6862
ح	-6863
ش	-6864
ط	-6865
ه	-6866
ज	-6867
จ	-6868
พ	-6869
ม	-6870
ย	-6871
ว	-6872
อ	-6873
ื	-6874
่	-6875
ᠣ	-6876
ᥫ	-6877
ṣ	-6878
ị	-6879
ῖ	-6880
‰	-6881
‱	-6882
⇀	-6883
⋯	-6884
▲	-6885
♪	-6886
ゥ	-6887
ユ	-6888
㑩	-6889
丐	-6890
丫	-6891
丶	-6892
亜	-6893
亳	-6894
佟	-6895
佶	-6896
傻	-6897
兎	-6898
剽	-6899
勅	-6900
勐	-6901
匐	-6902
叭	-6903
呋	-6904
呐	-6905
呗	-6906
呵	-6907
咎	-6908
咪	-6909
咳	-6910
哩	-6911
唆	-6912
啖	-6913
啭	-6914
啼	-6915
嗓	-6916
嗵	-6917
嘈	-6918
坍	-6919
坜	-6920
埕	-6921
墀	-6922
姃	-6923
姗	-6924
姥	-6925
嫚	-6926
嬉	-6927
孜	-6928
孪	-6929
宍	-6930
宕	-6931
寝	-6932
寞	-6933
尬	-6934
尴	-6935
岬	-6936
峒	-6937
峭	-6938
崃	-6939
巌	-6940
巻	-6941
庾	-6942
悖	-6943
慷	-6944
憓	-6945
憧	-6946
憬	-6947
戟	-6948
扆	-6949
扯	-6950
抨	-6951
拌	-6952
拢	-6953
拣	-6954
拷	-6955
挚	-6956
挨	-6957
捍	-6958
捏	-6959
掀	-6960
摈	-6961
摸	-6962
摹	-6963
撼	-6964
攸	-6965
敍	-6966
斟	-6967
斡	-6968
旌	-6969
昼	-6970
晟	-6971
晩	-6972
杼	-6973
枉	-6974
枭	-6975
柩	-6976
桦	-6977
桩	-6978
椰	-6979
椽	-6980
楔	-6981
榨	-6982
榫	-6983
榷	-6984
檬	-6985
歆	-6986
殇	-6987
毡	-6988
気	-6989
沌	-6990
沫	-6991
沭	-6992
沮	-6993
泠	-6994
洄	-6995
浣	-6996
涓	-6997
淞	-6998
済	-6999
渉	-7000
湜	-7001
湮	-7002
満	-7003
滁	-7004
滹	-7005
漪	-7006
漯	-7007
澂	-7008
澶	-7009
灏	-7010
烫	-7011
焜	-7012
熏	-7013
牍	-7014
犊	-7015
狈	-7016
猬	-7017
玟	-7018
琊	-7019
瑄	-7020
瑗	-7021
璜	-7022
璞	-7023
璠	-7024
瓒	-7025
疡	-7026
疮	-7027
疳	-7028
痊	-7029
痤	-7030
瘫	-7031
皿	-7032
盏	-7033
眇	-7034
県	-7035
睑	-7036
矗	-7037
砺	-7038
碇	-7039
碉	-7040
碛	-7041
祢	-7042
秃	-7043
笈	-7044
笋	-7045
箔	-7046
簪	-7047
続	-7048
繖	-7049
绚	-7050
绢	-7051
绷	-7052
缢	-7053
翀	-7054
翟	-7055
聋	-7056
腋	-7057
舎	-7058
舐	-7059
艏	-7060
苌	-7061
茉	-7062
荘	-7063
荚	-7064
莒	-7065
菓	-7066
菖	-7067
菟	-7068
菡	-7069
薬	-7070
蚊	-7071
蛳	-7072
蜱	-7073
螂	-7074
蟒	-7075
袪	-7076
褚	-7077
褫	-7078
觥	-7079
谗	-7080
谚	-7081
谿	-7082
赁	-7083
赟	-7084
趺	-7085
跤	-7086
跻	-7087
蹼	-7088
躬	-7089
轿	-7090
辂	-7091
辻	-7092
迳	-7093
迺	-7094
逯	-7095
邬	-7096
郃	-7097
郗	-7098
郸	-7099
郿	-7100
鄱	-7101
酝	-7102
酣	-7103
酪	-7104
钏	-7105
钛	-7106
铆	-7107
铙	-7108
铬	-7109
锈	-7110
锤	-7111
镁	-7112
镂	-7113
镌	-7114
镕	-7115
闳	-7116
陟	-7117
隍	-7118
隣	-7119
隽	-7120
霓	-7121
靳	-7122
鞘	-7123
頼	-7124
颔	-7125
饵	-7126
馏	-7127
駄	-7128
骅	-7129
髡	-7130
鲨	-7131
鸯	-7132
鸰	-7133
鸻	-7134
鹎	-7135
鹑	-7136
鹡	-7137
鹬	-7138
黯	-7139
鼬	-7140
국	-7141
금	-7142
기	-7143
스	-7144
연	-7145
인	-7146
준	-7147
한	-7148
𦈡	-7149
𫖮	-7150
𬱟	-7151
Ç	-7152
ì	-7153
î	-7154
ð	-7155
İ	-7156
œ	-7157
ş	-7158
ɣ	-7159
ɾ	-7160
ʊ	-7161
ʻ	-7162
˭	-7163
Α	-7164
Ε	-7165
ζ	-7166
ξ	-7167
φ	-7168
ώ	-7169
ъ	-7170
ю	-7171
ј	-7172
қ	-7173
ү	-7174
ա	-7175
ի	-7176
ն	-7177
֣	-7178
ׁ	-7179
ג	-7180
ע	-7181
ת	-7182
أ	-7183
क	-7184
ल	-7185
ु	-7186
র	-7187
ল	-7188
া	-7189
ร	-7190
ล	-7191
ส	-7192
ห	-7193
เ	-7194
้	-7195
์	-7196
ག	-7197
ི	-7198
ု	-7199
ေ	-7200
း	-7201
េ	-7202
ᥐ	-7203
ᥒ	-7204
ᥴ	-7205
ṭ	-7206
ồ	-7207
ờ	-7208
ứ	-7209
Ἀ	-7210
†	-7211
′	-7212
↔	-7213
⇆	-7214
◇	-7215
◎	-7216
●	-7217
ぇ	-7218
ぷ	-7219
ヲ	-7220
㴋	-7221
䕫	-7222
䲠	-7223
両	-7224
乗	-7225
亀	-7226
亢	-7227
亵	-7228
亶	-7229
亹	-7230
仞	-7231
伝	-7232
佘	-7233
侁	-7234
侬	-7235
俪	-7236
倣	-7237
倮	-7238
偃	-7239
偓	-7240
傀	-7241
儋	-7242
儡	-7243
冏	-7244
冨	-7245
凫	-7246
刎	-7247
剃	-7248
剔	-7249
剣	-7250
匋	-7251
匕	-7252
厕	-7253
叮	-7254
叻	-7255
呕	-7256
咁	-7257
咆	-7258
咋	-7259
咯	-7260
哆	-7261
唔	-7262
唬	-7263
啜	-7264
啧	-7265
嗟	-7266
嗡	-7267
嗪	-7268
嗽	-7269
噌	-7270
噻	-7271
嚣	-7272
嚼	-7273
囧	-7274
垮	-7275
堉	-7276
塀	-7277
墁	-7278
変	-7279
夯	-7280
奘	-7281
姒	-7282
娑	-7283
婕	-7284
媳	-7285
嫦	-7286
嬅	-7287
嬷	-7288
孽	-7289
寐	-7290
寥	-7291
屎	-7292
屹	-7293
岌	-7294
岖	-7295
岘	-7296
岱	-7297
峇	-7298
崁	-7299
崴	-7300
嵘	-7301
庥	-7302
廍	-7303
弈	-7304
弋	-7305
弾	-7306
徨	-7307
徭	-7308
忒	-7309
忡	-7310
忤	-7311
忿	-7312
怅	-7313
恃	-7314
悄	-7315
您	-7316
惋	-7317
惫	-7318
愍	-7319
慑	-7320
拽	-7321
捆	-7322
捩	-7323
掺	-7324
揄	-7325
揖	-7326
揶	-7327
搅	-7328
搪	-7329
撇	-7330
擂	-7331
攫	-7332
敝	-7333
昵	-7334
晞	-7335
枧	-7336
柠	-7337
栄	-7338
桀	-7339
桉	-7340
桔	-7341
桧	-7342
楫	-7343
榊	-7344
槛	-7345
槺	-7346
槿	-7347
橇	-7348
檄	-7349
殓	-7350
毎	-7351
毬	-7352
氓	-7353
氙	-7354
氰	-7355
汊	-7356
汞	-7357
沔	-7358
泱	-7359
泺	-7360
洵	-7361
洸	-7362
洽	-7363
浭	-7364
涎	-7365
淏	-7366
湄	-7367
湎	-7368
溅	-7369
溏	-7370
漓	-7371
澍	-7372
濯	-7373
瀚	-7374
灸	-7375
炔	-7376
炯	-7377
烁	-7378
烘	-7379
焌	-7380
煃	-7381
煊	-7382
熄	-7383
燎	-7384
燔	-7385
燧	-7386
爰	-7387
牝	-7388
牯	-7389
犍	-7390
犨	-7391
狒	-7392
狡	-7393
猖	-7394
猾	-7395
獗	-7396
獴	-7397
玑	-7398
玘	-7399
珏	-7400
珙	-7401
琍	-7402
琢	-7403
琤	-7404
璐	-7405
璘	-7406
瓿	-7407
甑	-7408
畾	-7409
疎	-7410
疠	-7411
疣	-7412
疵	-7413
疽	-7414
痢	-7415
痨	-7416
痪	-7417
痰	-7418
痲	-7419
癖	-7420
皈	-7421
皎	-7422
盍	-7423
盼	-7424
眕	-7425
眷	-7426
睢	-7427
睫	-7428
瞑	-7429
瞒	-7430
瞧	-7431
瞩	-7432
瞪	-7433
矜	-7434
砜	-7435
砥	-7436
砦	-7437
砭	-7438
礴	-7439
祔	-7440
祧	-7441
祺	-7442
禛	-7443
禥	-7444
秽	-7445
稗	-7446
稲	-7447
窓	-7448
窥	-7449
笙	-7450
筊	-7451
筏	-7452
筜	-7453
筼	-7454
篆	-7455
篑	-7456
籐	-7457
粥	-7458
糜	-7459
絵	-7460
綷	-7461
縄	-7462
纥	-7463
纭	-7464
纮	-7465
绸	-7466
缇	-7467
缟	-7468
缨	-7469
罂	-7470
罡	-7471
羯	-7472
耆	-7473
耙	-7474
耦	-7475
耨	-7476
耽	-7477
聿	-7478
肄	-7479
肮	-7480
胄	-7481
胯	-7482
脖	-7483
膦	-7484
臬	-7485
舻	-7486
艉	-7487
艽	-7488
芍	-7489
芥	-7490
芩	-7491
芷	-7492
苋	-7493
苜	-7494
苴	-7495
茁	-7496
茯	-7497
茴	-7498
荖	-7499
荟	-7500
萁	-7501
葩	-7502
葺	-7503
蒿	-7504
蓿	-7505
蔵	-7506
蔻	-7507
蔽	-7508
薗	-7509
藐	-7510
蚪	-7511
蚵	-7512
蛞	-7513
蛭	-7514
蜍	-7515
蜚	-7516
蝌	-7517
蝓	-7518
蝗	-7519
螨	-7520
螫	-7521
螯	-7522
螳	-7523
蟀	-7524
蟋	-7525
衅	-7526
衮	-7527
衾	-7528
袈	-7529
裟	-7530
褰	-7531
覃	-7532
観	-7533
觞	-7534
讹	-7535
诀	-7536
诋	-7537
诜	-7538
诟	-7539
诣	-7540
诽	-7541
谛	-7542
谤	-7543
豌	-7544
贱	-7545
赃	-7546
赡	-7547
赭	-7548
跪	-7549
跷	-7550
踊	-7551
踵	-7552
蹦	-7553
轲	-7554
辙	-7555
辫	-7556
迂	-7557
迤	-7558
逛	-7559
逞	-7560
遁	-7561
遄	-7562
遐	-7563
遑	-7564
遒	-7565
邠	-7566
邰	-7567
郫	-7568
郴	-7569
酺	-7570
醍	-7571
醐	-7572
醴	-7573
钯	-7574
铂	-7575
铄	-7576
铐	-7577
铖	-7578
锜	-7579
锢	-7580
锷	-7581
锺	-7582
镖	-7583
镗	-7584
阆	-7585
阖	-7586
険	-7587
隰	-7588
隷	-7589
靓	-7590
韬	-7591
颏	-7592
饺	-7593
馥	-7594
驒	-7595
驩	-7596
驭	-7597
驺	-7598
骇	-7599
骐	-7600
骧	-7601
骷	-7602
髅	-7603
髋	-7604
髦	-7605
鲅	-7606
鲭	-7607
鳖	-7608
鵖	-7609
鸲	-7610
鹃	-7611
鹈	-7612
鹉	-7613
鹘	-7614
麂	-7615
黙	-7616
가	-7617
결	-7618
경	-7619
는	-7620
달	-7621
더	-7622
동	-7623
라	-7624
마	-7625
미	-7626
사	-7627
새	-7628
실	-7629
업	-7630
오	-7631
외	-7632
위	-7633
을	-7634
재	-7635
진	-7636
철	-7637
태	-7638
파	-7639
호	-7640
홍	-7641
희	-7642
︎	-7643
𑀬	-7644
𢢝	-7645
𣐤	-7646
𫖳	-7647
𬀩	-7648
𬶍	-7649
\	-7650
`	-7651
|	-7652
£	-7653
¥	-7654
«	-7655
®	-7656
»	-7657
À	-7658
Å	-7659
Æ	-7660
Ò	-7661
Ü	-7662
ã	-7663
å	-7664
õ	-7665
ý	-7666
ÿ	-7667
ă	-7668
Ć	-7669
ę	-7670
ě	-7671
ĩ	-7672
ń	-7673
Ś	-7674
ż	-7675
Ž	-7676
ǎ	-7677
ɪ	-7678
ɲ	-7679
ʝ	-7680
͘	-7681
͡	-7682
Θ	-7683
Λ	-7684
Ξ	-7685
Σ	-7686
Φ	-7687
ψ	-7688
ϊ	-7689
Ж	-7690
О	-7691
У	-7692
Ц	-7693
Ч	-7694
Ш	-7695
Я	-7696
щ	-7697
ї	-7698
љ	-7699
Қ	-7700
ң	-7701
ө	-7702
Ա	-7703
Ս	-7704
Ք	-7705
գ	-7706
թ	-7707
ղ	-7708
մ	-7709
յ	-7710
ս	-7711
վ	-7712
տ	-7713
ւ	-7714
փ	-7715
ִ	-7716
ֵ	-7717
ֹ	-7718
ד	-7719
ז	-7720
ן	-7721
ף	-7722
פ	-7723
צ	-7724
آ	-7725
إ	-7726
ئ	-7727
خ	-7728
غ	-7729
ف	-7730
ى	-7731
چ	-7732
ک	-7733
ं	-7734
च	-7735
ड	-7736
त	-7737
न	-7738
म	-7739
स	-7740
ह	-7741
़	-7742
ि	-7743
ी	-7744
े	-7745
উ	-7746
জ	-7747
দ	-7748
প	-7749
ব	-7750
শ	-7751
স	-7752
ি	-7753
ে	-7754
க	-7755
ல	-7756
ி	-7757
ூ	-7758
ก	-7759
ฉ	-7760
ซ	-7761
ฐ	-7762
ณ	-7763
ต	-7764
ธ	-7765
ป	-7766
ภ	-7767
ะ	-7768
ี	-7769
ุ	-7770
ู	-7771
ཀ	-7772
ཅ	-7773
ཊ	-7774
མ	-7775
ཛ	-7776
ར	-7777
ལ	-7778
ཨ	-7779
ཱ	-7780
ེ	-7781
ခ	-7782
င	-7783
ဆ	-7784
ဈ	-7785
န	-7786
ပ	-7787
ဗ	-7788
လ	-7789
အ	-7790
ာ	-7791
ိ	-7792
ျ	-7793
კ	-7794
ქ	-7795
ᚼ	-7796
ᛒ	-7797
ខ	-7798
ឌ	-7799
ប	-7800
ម	-7801
រ	-7802
វ	-7803
អ	-7804
ា	-7805
ូ	-7806
ែ	-7807
៉	-7808
៊	-7809
ᠠ	-7810
ᠨ	-7811
ᠪ	-7812
ᠴ	-7813
ᠸ	-7814
ᡳ	-7815
ᥔ	-7816
ᥛ	-7817
ᥜ	-7818
ᥣ	-7819
ᥤ	-7820
ᥰ	-7821
ᥳ	-7822
ḍ	-7823
Ḥ	-7824
ḫ	-7825
ṃ	-7826
ạ	-7827
ầ	-7828
ậ	-7829
ọ	-7830
ộ	-7831
ự	-7832
Ἡ	-7833
ἰ	-7834
ἶ	-7835
ὐ	-7836
ὰ	-7837
ὺ	-7838
‐	-7839
‡	-7840
⇄	-7841
∙	-7842
∞	-7843
∧	-7844
∨	-7845
∼	-7846
〇	-7847
ぃ	-7848
ぽ	-7849
ゑ	-7850
ヘ	-7851
ㄧ	-7852
㞒	-7853
㟓	-7854
㨿	-7855
㬎	-7856
㭎	-7857
㭴	-7858
㴧	-7859
䇕	-7860
䓨	-7861
䓬	-7862
䜣	-7863
䯄	-7864
丼	-7865
乖	-7866
乩	-7867
亟	-7868
仡	-7869
伃	-7870
伋	-7871
佃	-7872
佤	-7873
佬	-7874
佺	-7875
侂	-7876
侃	-7877
侑	-7878
侪	-7879
侹	-7880
俳	-7881
俵	-7882
倔	-7883
値	-7884
偎	-7885
傒	-7886
傚	-7887
傜	-7888
傣	-7889
儛	-7890
兕	-7891
兜	-7892
兢	-7893
円	-7894
冇	-7895
冉	-7896
冧	-7897
冮	-7898
凇	-7899
凪	-7900
刍	-7901
刨	-7902
刳	-7903
剁	-7904
剜	-7905
剱	-7906
劄	-7907
労	-7908
劵	-7909
効	-7910
勗	-7911
勰	-7912
勲	-7913
勺	-7914
匏	-7915
卍	-7916
卣	-7917
厖	-7918
厩	-7919
叁	-7920
叼	-7921
吮	-7922
呔	-7923
呸	-7924
咕	-7925
咗	-7926
咩	-7927
哂	-7928
哄	-7929
哌	-7930
哎	-7931
哒	-7932
哞	-7933
哽	-7934
唁	-7935
唃	-7936
唢	-7937
啉	-7938
啪	-7939
啬	-7940
啰	-7941
啲	-7942
啾	-7943
喆	-7944
喔	-7945
喟	-7946
喱	-7947
喹	-7948
喾	-7949
嗑	-7950
嗝	-7951
嗬	-7952
嗯	-7953
嘀	-7954
噎	-7955
噤	-7956
噼	-7957
嚎	-7958
嚏	-7959
嚢	-7960
嚷	-7961
囓	-7962
囘	-7963
囤	-7964
図	-7965
圑	-7966
圜	-7967
坌	-7968
坔	-7969
坵	-7970
坼	-7971
垌	-7972
垭	-7973
埒	-7974
埙	-7975
塍	-7976
塼	-7977
塽	-7978
墯	-7979
壅	-7980
壝	-7981
夙	-7982
夼	-7983
奄	-7984
奨	-7985
奫	-7986
奰	-7987
妘	-7988
妞	-7989
妡	-7990
妪	-7991
妫	-7992
妳	-7993
娆	-7994
娼	-7995
婧	-7996
